00000000
00000000
00000000
00000000
00000000
00000000
00000000
00000000
00000000
00000000
00000000
00000000
00000000
00000000
00000000
00000000
00000000
00000000
00000000
00000000
00000000
00000000
40949BCF
00000000
00000000
00000000
00000000
00000000
C02E2FA8
00000000
00000000
00000000
00000000
00000000
00000000
00000000
00000000
00000000
00000000
00000000
00000000
00000000
00000000
00000000
00000000
00000000
00000000
BD97F59C
00000000
00000000
00000000
00000000
00000000
00000000
00000000
00000000
00000000
00000000
00000000
00000000
C0B06B75
00000000
00000000
00000000
00000000
00000000
00000000
00000000
00000000
00000000
00000000
00000000
00000000
00000000
00000000
00000000
00000000
BFEE8EBF
00000000
00000000
00000000
00000000
00000000
00000000
00000000
00000000
00000000
00000000
00000000
00000000
00000000
00000000
00000000
00000000
00000000
00000000
00000000
00000000
00000000
00000000
00000000
00000000
00000000
00000000
00000000
00000000
00000000
00000000
00000000
00000000
00000000
00000000
00000000
00000000
00000000
00000000
00000000
00000000
00000000
00000000
00000000
00000000
00000000
00000000
00000000
00000000
00000000
00000000
00000000
00000000
00000000
00000000
00000000
00000000
00000000
00000000
405EF4B6
00000000
00000000
00000000
00000000
00000000
00000000
00000000
00000000
00000000
00000000
00000000
00000000
00000000
00000000
00000000
00000000
00000000
00000000
00000000
00000000
00000000
C0AC309C
00000000
00000000
00000000
00000000
00000000
00000000
00000000
00000000
00000000
00000000
00000000
00000000
00000000
3ECF623C
00000000
00000000
00000000
00000000
00000000
00000000
00000000
00000000
00000000
00000000
00000000
00000000
00000000
00000000
00000000
00000000
00000000
00000000
00000000
00000000
00000000
00000000
00000000
00000000
00000000
00000000
00000000
40FD2BEB
00000000
00000000
00000000
00000000
00000000
00000000
00000000
00000000
00000000
00000000
00000000
00000000
00000000
00000000
00000000
00000000
00000000
00000000
3F1E377B
00000000
00000000
00000000
4000D611
00000000
00000000
00000000
00000000
00000000
00000000
00000000
00000000
00000000
00000000
00000000
00000000
00000000
00000000
00000000
00000000
00000000
00000000
00000000
00000000
00000000
00000000
00000000
00000000
00000000
00000000
00000000
00000000
00000000
00000000
00000000
00000000
00000000
00000000
00000000
00000000
00000000
00000000
00000000
00000000
00000000
00000000
00000000
00000000
00000000
00000000
00000000
00000000
00000000
00000000
00000000
00000000
00000000
00000000
410DAFA0
C03FC8A9
00000000
00000000
00000000
00000000
C0D58F1F
00000000
00000000
00000000
C0FD3933
00000000
00000000
00000000
00000000
00000000
00000000
00000000
00000000
00000000
00000000
00000000
00000000
00000000
00000000
00000000
00000000
00000000
41134244
404DA9E3
00000000
00000000
00000000
00000000
00000000
00000000
00000000
00000000
00000000
00000000
00000000
00000000
00000000
00000000
00000000
BF9B344B
00000000
00000000
00000000
00000000
00000000
00000000
00000000
00000000
BFC70898
00000000
00000000
00000000
00000000
00000000
00000000
C09615E6
C0E90BDF
00000000
C10EF122
00000000
00000000
00000000
00000000
00000000
00000000
00000000
00000000
00000000
00000000
4010CC5C
00000000
00000000
00000000
00000000
00000000
00000000
00000000
00000000
00000000
00000000
00000000
00000000
C05E3088
00000000
00000000
00000000
00000000
00000000
00000000
00000000
00000000
00000000
00000000
00000000
00000000
00000000
00000000
00000000
00000000
00000000
00000000
4017B012
00000000
00000000
00000000
00000000
00000000
00000000
00000000
00000000
00000000
00000000
00000000
00000000
00000000
00000000
00000000
C1146E79
00000000
00000000
00000000
00000000
00000000
00000000
40C01F5E
00000000
00000000
00000000
00000000
00000000
00000000
00000000
00000000
00000000
00000000
00000000
00000000
00000000
00000000
00000000
00000000
00000000
00000000
00000000
00000000
00000000
00000000
00000000
00000000
00000000
00000000
C0830099
00000000
C01C6E03
00000000
00000000
410D3D93
00000000
00000000
00000000
00000000
410B3A16
00000000
00000000
00000000
00000000
00000000
00000000
00000000
00000000
00000000
00000000
00000000
00000000
00000000
00000000
C09BC657
00000000
00000000
00000000
C0F07FB9
C07C9B88
00000000
00000000
00000000
00000000
00000000
00000000
00000000
00000000
C02AB389
400C5377
00000000
00000000
00000000
00000000
00000000
00000000
00000000
00000000
00000000
00000000
00000000
00000000
00000000
00000000
00000000
00000000
00000000
00000000
00000000
00000000
00000000
00000000
BECCE2B3
00000000
00000000
00000000
00000000
00000000
00000000
00000000
00000000
00000000
00000000
00000000
00000000
00000000
00000000
00000000
C0CE2243
00000000
00000000
00000000
00000000
00000000
00000000
00000000
00000000
411FF840
00000000
411ADC4D
00000000
00000000
00000000
40E28259
00000000
00000000
00000000
00000000
00000000
00000000
00000000
00000000
00000000
00000000
00000000
00000000
00000000
00000000
00000000
00000000
00000000
C0502285
00000000
00000000
00000000
00000000
00000000
00000000
00000000
00000000
00000000
00000000
00000000
00000000
00000000
00000000
00000000
00000000
00000000
00000000
00000000
00000000
00000000
00000000
00000000
00000000
00000000
00000000
00000000
00000000
00000000
00000000
00000000
00000000
00000000
00000000
00000000
00000000
00000000
00000000
00000000
00000000
C1161C01
00000000
00000000
C0B8FE39
00000000
00000000
00000000
00000000
00000000
00000000
C1100CA9
00000000
00000000
BFE7227D
00000000
402894CF
00000000
00000000
C1025A5A
00000000
00000000
00000000
00000000
00000000
00000000
00000000
41135039
00000000
00000000
C0452A7F
C0F82080
00000000
00000000
00000000
00000000
00000000
00000000
00000000
00000000
00000000
00000000
00000000
00000000
00000000
00000000
00000000
00000000
00000000
00000000
00000000
00000000
00000000
00000000
00000000
00000000
00000000
00000000
00000000
00000000
00000000
00000000
00000000
00000000
00000000
00000000
00000000
00000000
00000000
00000000
00000000
00000000
C10A1034
00000000
00000000
00000000
00000000
00000000
00000000
BFD77474
00000000
00000000
00000000
00000000
00000000
00000000
00000000
00000000
00000000
00000000
00000000
00000000
411162A5
00000000
00000000
00000000
00000000
00000000
00000000
00000000
00000000
00000000
00000000
00000000
00000000
00000000
00000000
00000000
00000000
00000000
00000000
404A6E41
00000000
00000000
00000000
00000000
00000000
BDE5F168
00000000
00000000
411ED601
00000000
00000000
00000000
00000000
00000000
00000000
00000000
00000000
00000000
00000000
00000000
00000000
4087152A
00000000
00000000
00000000
00000000
00000000
00000000
00000000
00000000
40B1D150
00000000
00000000
00000000
00000000
00000000
00000000
00000000
00000000
00000000
00000000
00000000
00000000
00000000
00000000
C096C22E
00000000
00000000
00000000
00000000
00000000
00000000
00000000
00000000
00000000
BF4EEF66
00000000
3E005A9F
00000000
00000000
00000000
00000000
00000000
00000000
00000000
00000000
00000000
00000000
00000000
00000000
00000000
00000000
00000000
C0CDDA35
00000000
00000000
00000000
00000000
00000000
00000000
00000000
00000000
00000000
C0BAA6D6
00000000
00000000
00000000
00000000
00000000
00000000
00000000
00000000
00000000
00000000
00000000
00000000
00000000
00000000
00000000
00000000
00000000
00000000
00000000
00000000
00000000
00000000
00000000
00000000
00000000
00000000
00000000
00000000
00000000
00000000
00000000
00000000
00000000
C084DDC3
00000000
00000000
00000000
C11DC80D
00000000
00000000
00000000
00000000
00000000
00000000
00000000
00000000
00000000
00000000
00000000
00000000
00000000
00000000
C0DC5E43
00000000
00000000
00000000
00000000
00000000
00000000
00000000
00000000
00000000
00000000
00000000
C0895E91
00000000
00000000
00000000
00000000
00000000
00000000
00000000
00000000
00000000
00000000
00000000
00000000
00000000
00000000
00000000
00000000
00000000
00000000
00000000
00000000
00000000
00000000
C0B2337E
00000000
00000000
00000000
00000000
00000000
00000000
00000000
00000000
00000000
00000000
00000000
00000000
00000000
00000000
00000000
00000000
00000000
00000000
00000000
C0DB7F63
40D8AB91
00000000
00000000
00000000
00000000
00000000
00000000
00000000
00000000
00000000
00000000
00000000
00000000
C0804059
00000000
00000000
00000000
C0016349
BFDFF858
00000000
00000000
00000000
00000000
00000000
00000000
00000000
00000000
00000000
00000000
00000000
00000000
00000000
00000000
00000000
4080076C
00000000
00000000
00000000
00000000
00000000
00000000
00000000
00000000
00000000
00000000
00000000
00000000
C017A8C8
00000000
00000000
00000000
00000000
00000000
40126931
00000000
00000000
00000000
00000000
C0EEE47A
00000000
00000000
40D4564D
00000000
00000000
00000000
00000000
00000000
00000000
00000000
00000000
00000000
00000000
00000000
C0BED3A6
00000000
40177237
00000000
00000000
00000000
405175CB
C0C4526A
00000000
00000000
00000000
00000000
40F041CC
00000000
00000000
00000000
00000000
00000000
00000000
00000000
00000000
00000000
00000000
00000000
00000000
00000000
00000000
00000000
00000000
00000000
00000000
00000000
00000000
00000000
00000000
00000000
00000000
00000000
00000000
40CDEA09
00000000
00000000
00000000
00000000
00000000
40998563
00000000
00000000
00000000
00000000
00000000
00000000
C02610EF
00000000
00000000
00000000
00000000
00000000
00000000
00000000
00000000
00000000
C10A14A1
00000000
40E64E67
00000000
00000000
00000000
00000000
00000000
00000000
00000000
C0440DB3
00000000
00000000
00000000
00000000
00000000
00000000
00000000
00000000
00000000
00000000
00000000
00000000
00000000
00000000
00000000
00000000
00000000
00000000
00000000
00000000
00000000
41051231
00000000
00000000
00000000
00000000
00000000
00000000
00000000
00000000
00000000
00000000
00000000
00000000
00000000
00000000
00000000
00000000
00000000
00000000
00000000
00000000
00000000
00000000
00000000
C116F0A3
00000000
C0F58A3F
00000000
00000000
00000000
00000000
00000000
00000000
00000000
00000000
00000000
00000000
00000000
00000000
C0E5E64D
4094B6FD
00000000
C0E451D5
00000000
00000000
00000000
00000000
00000000
BFE9F27A
00000000
00000000
00000000
00000000
00000000
00000000
00000000
00000000
00000000
00000000
00000000
00000000
00000000
00000000
00000000
00000000
00000000
00000000
C0798614
00000000
00000000
00000000
00000000
00000000
00000000
00000000
00000000
00000000
BF673B7A
00000000
00000000
00000000
00000000
00000000
00000000
00000000
00000000
00000000
00000000
00000000
40BED13D
00000000
00000000
00000000
00000000
00000000
00000000
00000000
3F6A9994
00000000
00000000
00000000
00000000
00000000
00000000
00000000
00000000
00000000
00000000
00000000
00000000
00000000
00000000
40B80018
00000000
00000000
00000000
00000000
00000000
00000000
00000000
00000000
00000000
00000000
00000000
00000000
00000000
00000000
00000000
00000000
00000000
00000000
00000000
00000000
00000000
00000000
00000000
40B511C0
00000000
00000000
00000000
00000000
00000000
00000000
00000000
00000000
00000000
00000000
00000000
00000000
00000000
00000000
00000000
00000000
00000000
00000000
00000000
00000000
00000000
00000000
00000000
00000000
00000000
00000000
00000000
00000000
00000000
00000000
00000000
00000000
00000000
00000000
00000000
00000000
00000000
00000000
00000000
00000000
00000000
00000000
00000000
00000000
00000000
00000000
00000000
3F42EB4C
00000000
00000000
00000000
00000000
00000000
00000000
00000000
00000000
00000000
00000000
40A774C4
00000000
00000000
00000000
00000000
00000000
00000000
00000000
00000000
00000000
00000000
00000000
00000000
40AB3809
00000000
00000000
00000000
00000000
00000000
00000000
00000000
00000000
00000000
00000000
00000000
00000000
00000000
00000000
00000000
00000000
00000000
00000000
00000000
00000000
BFFBD5E3
00000000
3F338832
00000000
00000000
C0A91678
BFFB14E8
00000000
00000000
00000000
00000000
00000000
00000000
4113E1CA
00000000
00000000
00000000
00000000
00000000
00000000
00000000
BFC34322
00000000
00000000
00000000
00000000
00000000
00000000
00000000
00000000
00000000
C103B12F
00000000
C046BFCE
00000000
00000000
00000000
00000000
00000000
BFD6CE09
C082ED63
00000000
00000000
40F6F23E
00000000
00000000
00000000
00000000
00000000
00000000
00000000
00000000
00000000
00000000
00000000
00000000
00000000
00000000
00000000
00000000
00000000
00000000
00000000
00000000
00000000
00000000
00000000
00000000
00000000
00000000
00000000
00000000
00000000
00000000
00000000
00000000
00000000
00000000
3E0E23FB
00000000
00000000
00000000
00000000
00000000
00000000
00000000
4087065D
00000000
00000000
00000000
C10D33BE
00000000
00000000
00000000
00000000
00000000
00000000
00000000
00000000
C0D1F24C
00000000
00000000
00000000
00000000
C10B966E
00000000
00000000
00000000
00000000
00000000
00000000
00000000
00000000
00000000
00000000
00000000
00000000
C05A3537
00000000
00000000
00000000
00000000
00000000
00000000
00000000
00000000
00000000
00000000
00000000
00000000
00000000
00000000
00000000
00000000
00000000
00000000
00000000
00000000
00000000
00000000
BFCD6106
00000000
00000000
00000000
00000000
00000000
00000000
C119B0EF
00000000
C104AE95
40A326A8
00000000
00000000
00000000
00000000
00000000
00000000
00000000
00000000
00000000
00000000
00000000
00000000
C0190CB4
00000000
00000000
00000000
00000000
00000000
00000000
00000000
00000000
00000000
00000000
00000000
00000000
00000000
00000000
00000000
00000000
00000000
00000000
00000000
00000000
00000000
00000000
00000000
00000000
C0A6B387
00000000
00000000
00000000
00000000
00000000
00000000
3F20FC8B
41156DDC
00000000
00000000
00000000
00000000
00000000
00000000
00000000
00000000
4119CC8C
41199108
C09E08ED
C0D45173
00000000
00000000
00000000
00000000
00000000
00000000
40CEEE72
40CCC99A
00000000
00000000
00000000
00000000
00000000
00000000
3FD8D5D6
00000000
00000000
00000000
00000000
00000000
00000000
00000000
00000000
00000000
00000000
00000000
C0E50813
00000000
00000000
00000000
C0F3EF54
00000000
00000000
00000000
00000000
C02DC028
00000000
00000000
BF6BCA17
400FC3A1
00000000
C110A249
00000000
00000000
00000000
00000000
00000000
00000000
00000000
00000000
00000000
00000000
00000000
00000000
00000000
00000000
00000000
00000000
00000000
00000000
00000000
00000000
00000000
00000000
00000000
00000000
00000000
00000000
00000000
00000000
00000000
40E1B87A
00000000
3FB0DBE4
00000000
00000000
00000000
00000000
00000000
00000000
00000000
00000000
00000000
00000000
00000000
00000000
00000000
00000000
00000000
00000000
00000000
00000000
00000000
C0EE55C4
00000000
00000000
00000000
00000000
00000000
00000000
00000000
00000000
00000000
00000000
00000000
00000000
00000000
00000000
00000000
00000000
00000000
00000000
00000000
00000000
00000000
00000000
00000000
00000000
00000000
00000000
40067EDA
4085FB51
00000000
00000000
00000000
00000000
00000000
00000000
00000000
00000000
00000000
00000000
00000000
00000000
00000000
00000000
00000000
00000000
00000000
00000000
00000000
00000000
00000000
40191AB3
00000000
00000000
00000000
C0BD5A1C
00000000
00000000
00000000
00000000
00000000
00000000
C0E9C8B0
00000000
00000000
00000000
410BA4BB
00000000
00000000
00000000
00000000
00000000
00000000
00000000
00000000
00000000
00000000
C082B065
00000000
40DDD1C5
00000000
00000000
00000000
00000000
00000000
00000000
00000000
00000000
00000000
00000000
00000000
00000000
00000000
00000000
4073C999
00000000
00000000
00000000
00000000
00000000
00000000
00000000
00000000
00000000
00000000
00000000
00000000
00000000
00000000
00000000
00000000
00000000
00000000
00000000
00000000
00000000
00000000
00000000
00000000
00000000
00000000
00000000
00000000
00000000
00000000
00000000
00000000
00000000
00000000
00000000
00000000
C0360725
00000000
00000000
00000000
00000000
00000000
00000000
00000000
00000000
00000000
00000000
00000000
00000000
00000000
00000000
C08593F9
00000000
00000000
00000000
00000000
00000000
00000000
00000000
00000000
00000000
00000000
00000000
00000000
00000000
00000000
00000000
00000000
BF9B20F9
00000000
BF9E9CFA
00000000
00000000
00000000
00000000
00000000
00000000
C0B19EC2
00000000
00000000
00000000
00000000
00000000
00000000
00000000
00000000
00000000
00000000
00000000
C10ACDB4
00000000
00000000
00000000
00000000
00000000
00000000
40D40D0F
00000000
00000000
00000000
00000000
00000000
C095850A
00000000
00000000
40CEB35D
00000000
00000000
00000000
00000000
00000000
00000000
00000000
00000000
C0703C01
00000000
00000000
00000000
00000000
00000000
00000000
00000000
00000000
00000000
00000000
00000000
00000000
00000000
00000000
00000000
C11786C7
00000000
00000000
00000000
00000000
00000000
00000000
00000000
00000000
00000000
00000000
00000000
00000000
00000000
00000000
00000000
00000000
00000000
00000000
00000000
00000000
00000000
00000000
00000000
00000000
00000000
00000000
00000000
00000000
00000000
00000000
00000000
00000000
00000000
C08C6142
00000000
40A140E4
00000000
00000000
00000000
00000000
00000000
00000000
40A8BFF5
00000000
00000000
00000000
00000000
00000000
00000000
00000000
00000000
00000000
00000000
41071B7B
00000000
00000000
00000000
00000000
00000000
00000000
00000000
00000000
00000000
00000000
00000000
00000000
00000000
00000000
00000000
00000000
00000000
00000000
00000000
00000000
00000000
C0FE97E6
00000000
00000000
00000000
00000000
00000000
00000000
00000000
00000000
00000000
00000000
00000000
3FBC4642
00000000
00000000
406824A1
00000000
00000000
00000000
00000000
00000000
00000000
00000000
00000000
00000000
406E4C93
00000000
00000000
00000000
00000000
00000000
00000000
00000000
00000000
00000000
00000000
00000000
00000000
40F8AAB2
00000000
00000000
00000000
00000000
00000000
00000000
00000000
00000000
00000000
00000000
00000000
00000000
00000000
00000000
C072B345
00000000
00000000
00000000
00000000
00000000
00000000
00000000
00000000
00000000
00000000
00000000
00000000
00000000
00000000
00000000
00000000
00000000
00000000
00000000
C008EF8A
00000000
00000000
00000000
00000000
00000000
00000000
00000000
00000000
00000000
00000000
00000000
00000000
00000000
00000000
00000000
00000000
00000000
00000000
00000000
00000000
00000000
00000000
C0DF726F
00000000
00000000
00000000
00000000
00000000
00000000
00000000
00000000
00000000
00000000
00000000
00000000
00000000
00000000
00000000
00000000
00000000
C03466FE
00000000
C0CFAC17
00000000
00000000
4103EE1D
00000000
00000000
00000000
00000000
00000000
00000000
00000000
00000000
00000000
00000000
00000000
00000000
00000000
00000000
00000000
00000000
00000000
00000000
00000000
00000000
00000000
00000000
00000000
00000000
C0B9088E
00000000
00000000
00000000
00000000
00000000
00000000
00000000
00000000
00000000
00000000
00000000
00000000
00000000
00000000
00000000
00000000
40CADFFC
40A13D38
00000000
00000000
00000000
00000000
00000000
3F371367
00000000
00000000
00000000
00000000
00000000
00000000
00000000
00000000
00000000
00000000
00000000
00000000
00000000
00000000
00000000
00000000
00000000
00000000
00000000
C100FD1E
00000000
00000000
00000000
00000000
00000000
00000000
00000000
00000000
00000000
00000000
00000000
00000000
00000000
00000000
00000000
00000000
00000000
00000000
00000000
00000000
00000000
00000000
00000000
00000000
00000000
00000000
00000000
00000000
00000000
00000000
00000000
00000000
00000000
00000000
00000000
00000000
00000000
00000000
00000000
00000000
00000000
00000000
00000000
00000000
00000000
00000000
3FA5F9C3
00000000
00000000
00000000
00000000
00000000
00000000
00000000
00000000
00000000
00000000
00000000
00000000
00000000
00000000
00000000
00000000
00000000
00000000
00000000
00000000
00000000
00000000
00000000
00000000
00000000
00000000
00000000
00000000
00000000
00000000
00000000
407AB3E8
00000000
00000000
00000000
BF875CDB
00000000
00000000
00000000
00000000
40BD98D1
00000000
00000000
00000000
405B97BA
00000000
00000000
00000000
00000000
00000000
00000000
00000000
00000000
00000000
C11BF22F
00000000
00000000
00000000
00000000
00000000
00000000
00000000
00000000
00000000
00000000
00000000
00000000
00000000
BF3B4FA5
40EF4DBC
00000000
00000000
3F974918
00000000
3F10ECFA
00000000
00000000
00000000
00000000
00000000
00000000
00000000
00000000
00000000
00000000
00000000
00000000
00000000
00000000
00000000
00000000
00000000
00000000
00000000
40D9E12C
00000000
00000000
00000000
C0E88051
00000000
C0EA0203
00000000
00000000
00000000
00000000
00000000
00000000
00000000
C0DC58DB
4020AD5F
00000000
00000000
00000000
00000000
00000000
00000000
00000000
00000000
00000000
00000000
00000000
00000000
00000000
00000000
00000000
00000000
40FCD301
00000000
00000000
C0D3A718
00000000
00000000
00000000
00000000
00000000
00000000
00000000
00000000
00000000
00000000
00000000
00000000
00000000
00000000
00000000
00000000
00000000
00000000
00000000
00000000
C0B03249
00000000
00000000
00000000
00000000
00000000
00000000
00000000
00000000
C1171A0F
40951C7D
00000000
00000000
00000000
00000000
00000000
00000000
00000000
3F61DD36
00000000
00000000
00000000
00000000
00000000
00000000
404AFCE5
00000000
00000000
00000000
3FD11980
00000000
00000000
00000000
00000000
3F635848
00000000
00000000
00000000
00000000
C11B27ED
00000000
00000000
00000000
00000000
00000000
00000000
00000000
00000000
00000000
00000000
00000000
4019A208
00000000
00000000
00000000
00000000
00000000
00000000
00000000
00000000
00000000
00000000
00000000
00000000
00000000
00000000
00000000
41013D70
00000000
C1165ED6
00000000
00000000
00000000
00000000
00000000
410451D3
00000000
00000000
00000000
00000000
C022CD74
00000000
00000000
00000000
00000000
00000000
00000000
00000000
00000000
00000000
00000000
00000000
00000000
00000000
4090C6E4
00000000
00000000
00000000
3E927F4D
00000000
00000000
00000000
00000000
00000000
00000000
00000000
00000000
00000000
00000000
00000000
00000000
00000000
00000000
00000000
00000000
00000000
00000000
00000000
3FF1DAA4
00000000
00000000
00000000
00000000
00000000
00000000
00000000
00000000
00000000
00000000
00000000
00000000
C0EE1195
00000000
00000000
00000000
00000000
C07148A3
00000000
00000000
00000000
00000000
00000000
00000000
00000000
00000000
00000000
00000000
00000000
00000000
00000000
00000000
4097FE2D
00000000
00000000
00000000
00000000
00000000
00000000
00000000
40401FA0
00000000
00000000
C07CB162
00000000
00000000
00000000
00000000
00000000
00000000
40FCB30F
00000000
00000000
00000000
00000000
00000000
00000000
00000000
00000000
00000000
00000000
00000000
00000000
00000000
00000000
00000000
00000000
00000000
00000000
00000000
00000000
40F2AEEF
00000000
00000000
00000000
00000000
00000000
00000000
00000000
00000000
00000000
00000000
4010F059
00000000
00000000
00000000
00000000
00000000
00000000
00000000
40F6C732
00000000
00000000
00000000
00000000
00000000
00000000
00000000
00000000
00000000
00000000
00000000
00000000
00000000
C10849DC
00000000
00000000
00000000
00000000
00000000
00000000
00000000
00000000
C110C847
00000000
00000000
00000000
00000000
00000000
00000000
00000000
00000000
00000000
00000000
00000000
C077859D
C0CF670B
00000000
00000000
00000000
00000000
00000000
00000000
00000000
409EA205
00000000
00000000
00000000
00000000
00000000
00000000
40FA617E
C0BE6D0A
00000000
00000000
00000000
00000000
00000000
C09F648D
00000000
00000000
00000000
00000000
00000000
00000000
00000000
00000000
00000000
00000000
00000000
00000000
00000000
00000000
BF95750D
00000000
00000000
00000000
00000000
00000000
00000000
00000000
C007FC19
00000000
00000000
BDCB5C47
00000000
00000000
00000000
00000000
00000000
00000000
00000000
3F69FBE3
00000000
00000000
00000000
00000000
00000000
00000000
00000000
00000000
00000000
00000000
00000000
00000000
00000000
4084856E
00000000
00000000
00000000
00000000
00000000
00000000
00000000
00000000
C0A579A7
00000000
00000000
00000000
00000000
00000000
00000000
C106B850
00000000
00000000
00000000
C0CE475E
410DACBF
00000000
00000000
00000000
00000000
00000000
00000000
00000000
00000000
00000000
00000000
00000000
00000000
00000000
00000000
00000000
00000000
00000000
00000000
00000000
00000000
40BFF972
00000000
00000000
00000000
C0D4050B
00000000
00000000
00000000
00000000
00000000
00000000
00000000
00000000
00000000
00000000
00000000
00000000
00000000
00000000
00000000
00000000
00000000
00000000
00000000
00000000
00000000
00000000
00000000
00000000
00000000
00000000
00000000
00000000
00000000
00000000
00000000
00000000
3FEEBC1E
00000000
00000000
00000000
00000000
00000000
00000000
C0CD8324
00000000
00000000
00000000
00000000
00000000
00000000
00000000
40AFC14E
00000000
00000000
00000000
00000000
4119E9CF
40248421
00000000
00000000
00000000
00000000
00000000
00000000
00000000
00000000
00000000
00000000
00000000
00000000
00000000
00000000
00000000
00000000
00000000
00000000
00000000
00000000
00000000
00000000
00000000
00000000
00000000
00000000
00000000
00000000
00000000
00000000
00000000
00000000
C10F5499
00000000
00000000
00000000
00000000
00000000
00000000
00000000
00000000
00000000
00000000
00000000
00000000
C11783D2
40B14BAC
00000000
00000000
00000000
00000000
00000000
00000000
00000000
00000000
00000000
00000000
00000000
00000000
00000000
00000000
00000000
00000000
00000000
00000000
00000000
00000000
00000000
00000000
00000000
00000000
00000000
C1106D45
00000000
00000000
00000000
00000000
00000000
00000000
00000000
00000000
00000000
00000000
00000000
00000000
00000000
00000000
00000000
00000000
00000000
00000000
00000000
00000000
00000000
00000000
00000000
00000000
00000000
402AAEFD
00000000
00000000
00000000
00000000
00000000
00000000
00000000
00000000
00000000
00000000
00000000
00000000
00000000
00000000
40D6BE2A
00000000
00000000
00000000
00000000
00000000
C0F37286
00000000
00000000
00000000
00000000
3FC49702
40CBD97F
00000000
00000000
00000000
00000000
00000000
00000000
00000000
00000000
00000000
00000000
00000000
00000000
00000000
00000000
00000000
C1158C45
00000000
00000000
00000000
00000000
00000000
00000000
00000000
00000000
00000000
00000000
00000000
00000000
00000000
00000000
00000000
00000000
00000000
00000000
00000000
00000000
00000000
00000000
00000000
00000000
00000000
00000000
40F74F22
40C8438F
00000000
00000000
00000000
00000000
C0C05418
00000000
00000000
C1013A69
00000000
00000000
00000000
00000000
00000000
00000000
00000000
00000000
00000000
00000000
00000000
00000000
00000000
00000000
00000000
00000000
00000000
00000000
00000000
00000000
00000000
00000000
00000000
00000000
00000000
00000000
00000000
00000000
00000000
00000000
00000000
406A2293
00000000
00000000
00000000
00000000
00000000
00000000
00000000
00000000
00000000
00000000
00000000
00000000
00000000
00000000
40CBDF8E
00000000
00000000
00000000
00000000
00000000
00000000
40EDBF27
00000000
00000000
00000000
00000000
00000000
00000000
00000000
00000000
C1179A1D
00000000
00000000
00000000
00000000
40E3C2FF
00000000
00000000
00000000
00000000
00000000
00000000
00000000
00000000
00000000
00000000
00000000
BFF1CCCE
00000000
00000000
00000000
00000000
00000000
00000000
00000000
00000000
00000000
00000000
404DF77C
00000000
00000000
00000000
00000000
00000000
00000000
00000000
00000000
00000000
00000000
C09FA945
00000000
00000000
00000000
00000000
00000000
00000000
00000000
C06A6F07
00000000
00000000
00000000
00000000
00000000
00000000
C0DE4498
00000000
00000000
00000000
00000000
00000000
00000000
00000000
40F00FE6
00000000
40ABB8B6
3FD17A1F
00000000
00000000
00000000
00000000
00000000
00000000
00000000
00000000
00000000
00000000
00000000
00000000
00000000
00000000
00000000
00000000
00000000
00000000
C08298A0
00000000
00000000
00000000
00000000
00000000
00000000
00000000
00000000
00000000
C1178E45
00000000
00000000
00000000
00000000
C0E1C400
4045B780
00000000
00000000
C0E0A910
00000000
00000000
00000000
00000000
00000000
00000000
00000000
00000000
00000000
00000000
00000000
00000000
C043C3E3
00000000
C07A6F65
00000000
00000000
00000000
00000000
00000000
00000000
00000000
00000000
00000000
00000000
00000000
00000000
00000000
00000000
00000000
00000000
00000000
00000000
00000000
C108C5DD
00000000
00000000
00000000
C10EA911
00000000
00000000
00000000
00000000
00000000
00000000
00000000
00000000
00000000
00000000
00000000
00000000
00000000
00000000
00000000
00000000
00000000
00000000
00000000
00000000
00000000
00000000
00000000
00000000
00000000
00000000
00000000
00000000
00000000
00000000
00000000
00000000
00000000
00000000
00000000
00000000
00000000
00000000
00000000
408C7681
00000000
00000000
00000000
00000000
00000000
00000000
00000000
00000000
00000000
C0EFE3FA
40FA5143
00000000
00000000
00000000
00000000
00000000
00000000
C0BF4E2F
00000000
00000000
00000000
C105AB85
00000000
00000000
00000000
00000000
00000000
00000000
40942EC2
00000000
00000000
00000000
00000000
00000000
00000000
00000000
3FBB10FD
00000000
00000000
00000000
00000000
00000000
00000000
00000000
00000000
00000000
00000000
00000000
00000000
00000000
00000000
00000000
00000000
C10E9581
00000000
00000000
3F818EB9
00000000
00000000
40732478
00000000
00000000
00000000
00000000
C07BF4CA
00000000
00000000
C071B5E9
00000000
00000000
00000000
00000000
00000000
00000000
00000000
00000000
3FF0115B
00000000
00000000
00000000
00000000
00000000
00000000
00000000
00000000
00000000
00000000
00000000
00000000
00000000
00000000
00000000
00000000
00000000
00000000
00000000
00000000
00000000
00000000
00000000
00000000
00000000
00000000
00000000
00000000
00000000
00000000
00000000
00000000
00000000
00000000
00000000
00000000
00000000
00000000
00000000
00000000
00000000
00000000
00000000
C099A3A3
00000000
00000000
00000000
00000000
BE9C3ED0
00000000
00000000
C0FCA001
00000000
00000000
00000000
00000000
00000000
00000000
00000000
00000000
00000000
00000000
00000000
00000000
00000000
00000000
00000000
00000000
00000000
00000000
00000000
00000000
00000000
C0B1467B
00000000
00000000
00000000
00000000
00000000
00000000
00000000
00000000
00000000
C0FD8132
00000000
00000000
00000000
C0F101DE
00000000
00000000
00000000
00000000
BFE4FF1F
00000000
00000000
00000000
00000000
00000000
00000000
40569F0C
00000000
40AF98FA
00000000
00000000
00000000
00000000
00000000
00000000
00000000
00000000
00000000
410C4777
00000000
00000000
00000000
40EAFC91
00000000
00000000
00000000
00000000
00000000
40D754E0
00000000
00000000
00000000
00000000
00000000
00000000
00000000
00000000
00000000
00000000
00000000
00000000
00000000
00000000
00000000
00000000
00000000
00000000
00000000
00000000
00000000
408DA2B1
00000000
00000000
00000000
00000000
00000000
00000000
00000000
00000000
00000000
00000000
00000000
00000000
00000000
00000000
00000000
00000000
3FFC48BC
00000000
00000000
00000000
00000000
00000000
3FCCF9F8
00000000
00000000
00000000
410D6989
00000000
00000000
00000000
00000000
00000000
00000000
00000000
00000000
00000000
00000000
00000000
00000000
00000000
00000000
00000000
00000000
00000000
00000000
00000000
00000000
40F041C0
00000000
00000000
BFE4E1E7
00000000
00000000
00000000
00000000
00000000
00000000
00000000
00000000
00000000
00000000
00000000
00000000
00000000
00000000
C11C814E
00000000
00000000
00000000
00000000
00000000
00000000
C105CDA3
400D9FFF
00000000
00000000
00000000
00000000
40E61E6E
00000000
00000000
00000000
00000000
00000000
00000000
00000000
00000000
00000000
00000000
00000000
00000000
00000000
00000000
00000000
BE13006B
00000000
00000000
00000000
00000000
00000000
00000000
00000000
00000000
00000000
406E58F9
00000000
00000000
00000000
00000000
00000000
403F472A
00000000
00000000
40FEE964
00000000
00000000
00000000
00000000
00000000
00000000
00000000
00000000
00000000
00000000
00000000
00000000
C10D61CF
00000000
00000000
00000000
00000000
410926F4
00000000
00000000
00000000
00000000
00000000
00000000
00000000
00000000
00000000
40CE3FD7
00000000
00000000
00000000
00000000
00000000
00000000
00000000
00000000
00000000
00000000
00000000
00000000
C0092325
4116299C
00000000
00000000
00000000
4108756F
00000000
00000000
00000000
00000000
00000000
4039D467
00000000
00000000
40F1AE71
00000000
00000000
00000000
00000000
00000000
00000000
00000000
40E47E1A
00000000
00000000
00000000
00000000
00000000
00000000
00000000
00000000
00000000
00000000
00000000
00000000
00000000
00000000
00000000
00000000
00000000
00000000
00000000
00000000
00000000
00000000
00000000
00000000
00000000
00000000
00000000
00000000
00000000
00000000
C10C204A
00000000
00000000
00000000
00000000
00000000
00000000
C114ABD3
C0FCB6F0
00000000
405354FC
00000000
C07EEA87
00000000
00000000
00000000
00000000
00000000
00000000
00000000
00000000
00000000
00000000
00000000
00000000
00000000
00000000
00000000
00000000
00000000
00000000
00000000
00000000
00000000
00000000
00000000
00000000
40F406DC
00000000
00000000
00000000
00000000
00000000
00000000
00000000
00000000
C1111405
00000000
00000000
00000000
00000000
00000000
00000000
00000000
00000000
00000000
00000000
00000000
00000000
00000000
00000000
00000000
00000000
00000000
00000000
00000000
00000000
00000000
00000000
00000000
00000000
00000000
00000000
00000000
00000000
00000000
00000000
00000000
00000000
00000000
00000000
00000000
00000000
00000000
00000000
00000000
00000000
00000000
00000000
00000000
00000000
00000000
00000000
4055A4C5
00000000
C0837230
00000000
C06AD797
00000000
00000000
00000000
00000000
00000000
00000000
00000000
00000000
00000000
C116D050
00000000
00000000
00000000
00000000
00000000
00000000
00000000
00000000
00000000
00000000
00000000
00000000
00000000
00000000
00000000
00000000
00000000
00000000
00000000
00000000
00000000
00000000
00000000
C0F34590
00000000
00000000
00000000
00000000
00000000
00000000
00000000
00000000
00000000
00000000
00000000
00000000
00000000
00000000
00000000
00000000
C02B2A6D
00000000
00000000
3F4C6291
00000000
00000000
00000000
00000000
00000000
00000000
00000000
00000000
00000000
00000000
00000000
3F90CBF0
00000000
00000000
00000000
00000000
00000000
00000000
00000000
00000000
00000000
00000000
BFA819E7
00000000
00000000
00000000
00000000
00000000
00000000
00000000
00000000
00000000
00000000
00000000
00000000
00000000
C0C12EAD
00000000
00000000
00000000
40F7E562
00000000
00000000
00000000
00000000
00000000
00000000
00000000
00000000
00000000
00000000
00000000
00000000
00000000
00000000
00000000
00000000
00000000
00000000
00000000
00000000
00000000
00000000
00000000
00000000
00000000
00000000
00000000
00000000
00000000
00000000
00000000
00000000
00000000
00000000
40D3DBBB
00000000
00000000
00000000
00000000
41014696
00000000
00000000
00000000
00000000
00000000
4055E6A0
40836E6B
00000000
00000000
00000000
00000000
00000000
00000000
00000000
00000000
00000000
00000000
00000000
00000000
00000000
00000000
00000000
00000000
00000000
00000000
00000000
00000000
00000000
3FCBEB93
00000000
00000000
00000000
00000000
C03F918E
00000000
C0E034B2
00000000
00000000
00000000
00000000
00000000
00000000
00000000
00000000
00000000
00000000
00000000
00000000
00000000
C0EE1CA8
00000000
00000000
00000000
00000000
00000000
00000000
00000000
00000000
00000000
00000000
00000000
00000000
C0E48D28
00000000
00000000
00000000
00000000
3F71A978
00000000
00000000
00000000
00000000
00000000
00000000
00000000
00000000
00000000
00000000
00000000
00000000
00000000
00000000
00000000
00000000
00000000
00000000
00000000
00000000
00000000
00000000
00000000
00000000
00000000
00000000
00000000
00000000
40CF0B23
00000000
00000000
C00E08D7
00000000
00000000
00000000
00000000
00000000
00000000
00000000
00000000
00000000
00000000
00000000
00000000
00000000
00000000
00000000
410DABB4
C10C7E6C
00000000
40724509
00000000
00000000
00000000
00000000
00000000
00000000
00000000
00000000
00000000
00000000
00000000
00000000
00000000
00000000
00000000
00000000
00000000
00000000
00000000
00000000
00000000
00000000
00000000
00000000
00000000
00000000
00000000
408C491C
41099D50
00000000
407CE750
00000000
00000000
00000000
00000000
00000000
00000000
00000000
00000000
00000000
00000000
00000000
C1191CB6
00000000
00000000
00000000
00000000
00000000
00000000
00000000
00000000
00000000
00000000
00000000
00000000
00000000
00000000
00000000
BF2B60DD
00000000
00000000
00000000
00000000
00000000
00000000
00000000
00000000
00000000
00000000
00000000
00000000
00000000
C0609E34
00000000
00000000
00000000
00000000
00000000
00000000
00000000
00000000
00000000
00000000
00000000
00000000
00000000
00000000
00000000
C0A28C09
00000000
C0E4D38E
00000000
00000000
00000000
00000000
C111FA64
00000000
00000000
00000000
00000000
00000000
00000000
00000000
BF8FE24F
00000000
00000000
00000000
C036646F
00000000
00000000
00000000
4100A93E
C0F74B1B
00000000
00000000
00000000
00000000
400C037E
404008F2
41081185
00000000
00000000
00000000
00000000
00000000
00000000
00000000
00000000
00000000
00000000
00000000
409D6963
00000000
00000000
00000000
00000000
00000000
00000000
00000000
00000000
00000000
00000000
00000000
00000000
00000000
C0E7CAC5
00000000
00000000
00000000
00000000
00000000
00000000
00000000
00000000
00000000
00000000
00000000
00000000
00000000
00000000
00000000
00000000
00000000
00000000
00000000
00000000
00000000
00000000
00000000
00000000
00000000
00000000
00000000
00000000
00000000
00000000
00000000
00000000
00000000
40D9B8B7
00000000
00000000
00000000
00000000
00000000
00000000
00000000
00000000
00000000
00000000
00000000
00000000
00000000
00000000
00000000
00000000
00000000
00000000
00000000
00000000
00000000
00000000
00000000
00000000
00000000
00000000
00000000
00000000
00000000
00000000
00000000
00000000
00000000
00000000
00000000
00000000
00000000
00000000
00000000
00000000
00000000
00000000
00000000
00000000
00000000
00000000
00000000
00000000
00000000
00000000
00000000
00000000
00000000
00000000
00000000
00000000
00000000
00000000
409D7F15
00000000
00000000
00000000
00000000
C07D7377
00000000
00000000
00000000
00000000
00000000
00000000
00000000
00000000
00000000
00000000
00000000
00000000
00000000
00000000
00000000
00000000
00000000
00000000
00000000
C0E2F336
00000000
C031B646
00000000
00000000
00000000
00000000
00000000
00000000
C0FFF0D2
00000000
00000000
BE96505C
00000000
00000000
00000000
00000000
00000000
00000000
00000000
00000000
00000000
00000000
00000000
00000000
00000000
00000000
00000000
00000000
00000000
00000000
00000000
00000000
00000000
00000000
00000000
4019C679
00000000
00000000
00000000
00000000
00000000
00000000
00000000
00000000
406E4DF9
00000000
00000000
00000000
00000000
00000000
C07CF9B6
3D8E548E
00000000
00000000
00000000
00000000
00000000
00000000
00000000
00000000
00000000
00000000
00000000
00000000
00000000
00000000
00000000
00000000
00000000
00000000
00000000
C1079FB4
40DE8DAA
00000000
00000000
00000000
4112B89B
00000000
00000000
00000000
00000000
00000000
00000000
00000000
00000000
00000000
00000000
41009F0C
00000000
00000000
00000000
00000000
BFA07345
00000000
00000000
00000000
00000000
00000000
00000000
410B2629
00000000
00000000
00000000
00000000
00000000
40E3ECE6
00000000
00000000
00000000
00000000
400F6A0D
00000000
00000000
00000000
00000000
00000000
00000000
00000000
00000000
00000000
00000000
00000000
00000000
00000000
40E67E22
00000000
411D8694
00000000
00000000
00000000
00000000
00000000
00000000
00000000
00000000
00000000
00000000
00000000
00000000
00000000
00000000
00000000
00000000
00000000
00000000
00000000
00000000
00000000
00000000
00000000
00000000
00000000
00000000
00000000
00000000
C0F932F0
00000000
00000000
00000000
00000000
00000000
00000000
00000000
00000000
00000000
00000000
00000000
411D799D
00000000
00000000
00000000
00000000
00000000
00000000
00000000
00000000
00000000
00000000
00000000
00000000
C0A3F2B3
00000000
00000000
00000000
00000000
00000000
C0BFA6E8
00000000
00000000
00000000
00000000
00000000
00000000
00000000
00000000
00000000
00000000
00000000
00000000
00000000
00000000
3FD8C938
00000000
00000000
00000000
00000000
00000000
00000000
00000000
00000000
00000000
40555186
00000000
406D87AF
C07B7BDE
00000000
00000000
40C3022F
00000000
00000000
00000000
00000000
00000000
00000000
00000000
00000000
00000000
00000000
00000000
00000000
410334BA
00000000
00000000
00000000
00000000
00000000
00000000
00000000
00000000
00000000
00000000
00000000
00000000
00000000
00000000
00000000
00000000
00000000
00000000
00000000
00000000
00000000
00000000
00000000
404529E4
00000000
C02DEC93
40E2D1C3
00000000
00000000
00000000
00000000
00000000
00000000
00000000
00000000
00000000
00000000
00000000
00000000
00000000
00000000
00000000
00000000
00000000
00000000
00000000
405AB01F
00000000
00000000
00000000
00000000
00000000
00000000
00000000
00000000
00000000
00000000
00000000
00000000
00000000
00000000
00000000
00000000
00000000
00000000
00000000
00000000
00000000
00000000
00000000
00000000
00000000
00000000
00000000
00000000
C0ABF437
00000000
00000000
00000000
00000000
00000000
00000000
00000000
00000000
BEEBA5B6
00000000
00000000
00000000
00000000
00000000
00000000
00000000
00000000
00000000
00000000
00000000
00000000
BD174967
00000000
00000000
00000000
00000000
00000000
00000000
00000000
00000000
C0D302A1
00000000
00000000
00000000
00000000
00000000
00000000
C01D3C69
00000000
00000000
C0A4A722
00000000
00000000
00000000
00000000
00000000
00000000
00000000
00000000
00000000
00000000
00000000
00000000
00000000
00000000
00000000
00000000
00000000
00000000
00000000
00000000
00000000
00000000
00000000
00000000
00000000
00000000
00000000
00000000
C08E60E5
00000000
00000000
00000000
00000000
00000000
00000000
00000000
00000000
00000000
00000000
00000000
00000000
00000000
00000000
00000000
00000000
00000000
00000000
00000000
00000000
00000000
00000000
00000000
00000000
00000000
00000000
00000000
00000000
00000000
00000000
00000000
C0BCCA03
00000000
00000000
00000000
00000000
00000000
00000000
00000000
00000000
00000000
00000000
00000000
00000000
00000000
00000000
00000000
00000000
00000000
00000000
00000000
00000000
00000000
3FE04C7E
00000000
00000000
00000000
00000000
00000000
00000000
C05CD65D
00000000
403DF372
00000000
00000000
00000000
00000000
00000000
00000000
00000000
00000000
00000000
00000000
00000000
00000000
00000000
00000000
00000000
C0EAAE32
00000000
00000000
00000000
C10E69ED
00000000
00000000
00000000
00000000
3E960EBC
00000000
00000000
00000000
00000000
00000000
00000000
4100D3A9
00000000
00000000
00000000
00000000
00000000
00000000
BF8EBD72
00000000
00000000
00000000
C048C674
00000000
00000000
00000000
00000000
00000000
00000000
00000000
00000000
00000000
BF65BAEA
00000000
00000000
00000000
00000000
00000000
00000000
00000000
C0AA3CC6
00000000
00000000
00000000
00000000
00000000
00000000
00000000
00000000
00000000
00000000
00000000
00000000
00000000
00000000
00000000
00000000
00000000
00000000
00000000
00000000
00000000
00000000
00000000
00000000
00000000
00000000
00000000
00000000
00000000
00000000
00000000
00000000
00000000
00000000
00000000
00000000
00000000
00000000
00000000
00000000
00000000
00000000
00000000
00000000
00000000
00000000
00000000
00000000
00000000
00000000
00000000
00000000
00000000
00000000
00000000
00000000
00000000
00000000
00000000
00000000
00000000
00000000
00000000
00000000
00000000
00000000
00000000
00000000
00000000
00000000
00000000
00000000
00000000
00000000
00000000
00000000
00000000
00000000
00000000
00000000
00000000
00000000
00000000
00000000
00000000
00000000
40405A87
00000000
00000000
00000000
00000000
00000000
C0633271
00000000
00000000
00000000
00000000
00000000
00000000
00000000
00000000
00000000
C0D2A24C
00000000
00000000
00000000
403FCF4C
00000000
00000000
00000000
00000000
00000000
00000000
00000000
00000000
00000000
400511FC
00000000
C0415F2F
00000000
00000000
C04B5AF3
00000000
00000000
00000000
00000000
00000000
40580C31
00000000
C111E3E4
00000000
00000000
00000000
00000000
C082CEF3
00000000
00000000
00000000
00000000
00000000
00000000
00000000
C0E7EC36
00000000
00000000
00000000
00000000
00000000
00000000
00000000
00000000
00000000
00000000
00000000
00000000
00000000
00000000
00000000
00000000
00000000
00000000
00000000
00000000
00000000
00000000
00000000
00000000
00000000
00000000
00000000
00000000
00000000
00000000
00000000
00000000
00000000
00000000
00000000
00000000
00000000
00000000
C0921A45
00000000
00000000
00000000
00000000
00000000
00000000
4107281F
00000000
00000000
00000000
00000000
00000000
00000000
00000000
00000000
C0B0E845
00000000
00000000
00000000
00000000
00000000
00000000
00000000
00000000
00000000
00000000
00000000
00000000
00000000
BFFEB3DE
00000000
00000000
00000000
00000000
00000000
00000000
00000000
00000000
00000000
00000000
00000000
C1116EB5
00000000
C05F9C7A
00000000
00000000
00000000
40368694
4087FF9F
00000000
BF120087
00000000
00000000
00000000
00000000
00000000
00000000
00000000
00000000
00000000
00000000
C1109A19
00000000
00000000
00000000
00000000
00000000
00000000
00000000
410C59FC
00000000
00000000
00000000
4114A24B
00000000
00000000
00000000
00000000
00000000
00000000
C04E7F9B
00000000
00000000
00000000
00000000
00000000
00000000
00000000
00000000
C1197FA4
00000000
00000000
00000000
40BC9DA3
00000000
C0EC1CA4
00000000
00000000
00000000
00000000
C0315E15
00000000
00000000
00000000
00000000
00000000
00000000
00000000
00000000
00000000
00000000
00000000
00000000
00000000
00000000
40D1AC85
00000000
00000000
00000000
00000000
00000000
00000000
00000000
00000000
00000000
00000000
00000000
00000000
00000000
40CF66B5
00000000
00000000
00000000
00000000
00000000
00000000
00000000
00000000
00000000
00000000
00000000
00000000
00000000
00000000
00000000
00000000
00000000
C0FADC03
00000000
00000000
00000000
00000000
00000000
00000000
00000000
00000000
00000000
00000000
00000000
00000000
00000000
00000000
00000000
00000000
00000000
00000000
00000000
00000000
00000000
00000000
401CCA87
00000000
00000000
00000000
00000000
4001A1E3
00000000
00000000
00000000
00000000
00000000
00000000
00000000
C0C4D6D3
00000000
3F4A150A
00000000
00000000
00000000
00000000
00000000
00000000
00000000
00000000
00000000
00000000
C11911F9
00000000
00000000
00000000
00000000
00000000
00000000
00000000
00000000
00000000
00000000
00000000
400426EF
00000000
00000000
00000000
00000000
00000000
00000000
00000000
00000000
00000000
00000000
40CA2D6A
3F195C27
BF86AD56
00000000
00000000
00000000
00000000
00000000
00000000
00000000
00000000
00000000
00000000
00000000
00000000
00000000
00000000
00000000
00000000
3F8E9C08
00000000
00000000
00000000
00000000
4103B5E6
00000000
00000000
00000000
00000000
00000000
3D10BD11
00000000
00000000
00000000
00000000
00000000
00000000
00000000
00000000
00000000
00000000
00000000
00000000
4004D610
00000000
41185F90
00000000
00000000
00000000
00000000
00000000
00000000
C103C0EF
00000000
00000000
00000000
00000000
00000000
00000000
00000000
BF288A64
00000000
00000000
00000000
00000000
00000000
402FC346
00000000
C0486254
00000000
00000000
00000000
00000000
00000000
00000000
00000000
00000000
00000000
00000000
00000000
00000000
00000000
00000000
3F030EA4
00000000
00000000
00000000
00000000
00000000
00000000
00000000
00000000
00000000
00000000
00000000
00000000
00000000
00000000
00000000
00000000
00000000
00000000
00000000
00000000
C021E9A6
00000000
00000000
00000000
00000000
00000000
00000000
00000000
00000000
00000000
00000000
00000000
00000000
00000000
00000000
00000000
00000000
00000000
00000000
00000000
00000000
00000000
C0211B20
00000000
00000000
00000000
C0D9CEAB
00000000
407ED770
00000000
00000000
C0475C18
00000000
00000000
00000000
00000000
00000000
00000000
C0E18DB0
00000000
00000000
00000000
00000000
C1087774
00000000
00000000
00000000
00000000
00000000
00000000
00000000
00000000
00000000
00000000
00000000
00000000
00000000
00000000
00000000
00000000
00000000
00000000
00000000
00000000
00000000
00000000
C11D300C
00000000
00000000
00000000
00000000
00000000
00000000
00000000
00000000
00000000
00000000
00000000
00000000
C10179B1
4111B1F9
00000000
00000000
00000000
00000000
00000000
00000000
00000000
00000000
C0A59684
00000000
00000000
00000000
00000000
00000000
00000000
00000000
00000000
00000000
00000000
00000000
00000000
C0D0C670
00000000
00000000
00000000
00000000
00000000
00000000
00000000
00000000
40335304
00000000
00000000
00000000
00000000
00000000
00000000
00000000
00000000
00000000
00000000
00000000
00000000
00000000
00000000
00000000
00000000
00000000
00000000
00000000
00000000
00000000
00000000
00000000
00000000
00000000
00000000
00000000
00000000
00000000
BD35C1D7
00000000
00000000
00000000
00000000
00000000
00000000
00000000
C09BBD24
00000000
00000000
00000000
00000000
00000000
00000000
00000000
00000000
00000000
00000000
3FF84A02
00000000
00000000
00000000
00000000
00000000
00000000
00000000
00000000
00000000
00000000
40C08937
00000000
00000000
00000000
00000000
00000000
00000000
00000000
00000000
3FF039D3
00000000
3EFE2546
00000000
40BEE4C1
00000000
00000000
00000000
00000000
00000000
00000000
00000000
00000000
00000000
00000000
00000000
00000000
00000000
00000000
00000000
00000000
00000000
00000000
C05824DA
00000000
00000000
00000000
00000000
00000000
00000000
00000000
00000000
00000000
00000000
00000000
C0E9C1CA
00000000
00000000
00000000
00000000
00000000
00000000
C11DCE78
00000000
00000000
BEC3C5FF
00000000
00000000
00000000
00000000
3F31ADE4
4102215E
00000000
00000000
00000000
BF1AEA14
00000000
00000000
00000000
00000000
00000000
4093DA48
00000000
00000000
00000000
00000000
00000000
C0A10BF1
00000000
00000000
00000000
00000000
00000000
00000000
00000000
00000000
00000000
BEBCE7ED
00000000
00000000
00000000
BFD98D47
C1096CAF
00000000
00000000
00000000
00000000
00000000
405603FD
00000000
BF0B5F7D
00000000
00000000
00000000
00000000
00000000
00000000
00000000
00000000
00000000
00000000
00000000
C01259F7
00000000
00000000
00000000
00000000
00000000
BFDFB88B
00000000
4093293F
00000000
00000000
00000000
00000000
00000000
00000000
00000000
00000000
00000000
00000000
00000000
00000000
00000000
00000000
00000000
BE2FDCDE
00000000
00000000
00000000
00000000
C068C68C
00000000
00000000
00000000
00000000
00000000
00000000
40FC76D8
00000000
4031E350
00000000
40A55F11
00000000
00000000
00000000
40ECE9E6
00000000
00000000
00000000
00000000
00000000
00000000
00000000
00000000
00000000
3FC693EF
00000000
00000000
00000000
00000000
00000000
00000000
40C6F1C2
00000000
00000000
3FF61DF0
00000000
4098870E
00000000
00000000
00000000
00000000
00000000
00000000
00000000
00000000
00000000
00000000
BFF74955
00000000
BFE7ED3A
00000000
00000000
00000000
00000000
00000000
00000000
00000000
00000000
00000000
00000000
00000000
410A5435
00000000
00000000
00000000
00000000
00000000
00000000
00000000
40E77D4B
00000000
00000000
00000000
00000000
00000000
00000000
00000000
00000000
00000000
00000000
00000000
00000000
00000000
00000000
00000000
00000000
00000000
00000000
00000000
00000000
00000000
00000000
00000000
00000000
00000000
00000000
3FD0875F
00000000
00000000
00000000
00000000
00000000
00000000
00000000
00000000
41049986
00000000
00000000
00000000
00000000
00000000
411D27EF
00000000
00000000
00000000
00000000
00000000
00000000
00000000
00000000
00000000
00000000
00000000
00000000
00000000
00000000
00000000
00000000
4073637F
00000000
00000000
00000000
00000000
00000000
00000000
C10C98CD
00000000
C11B5C37
3EDCD56E
00000000
00000000
00000000
00000000
00000000
00000000
4090C5D3
C00ACDDA
00000000
00000000
00000000
00000000
00000000
00000000
00000000
00000000
00000000
00000000
00000000
00000000
00000000
00000000
00000000
00000000
00000000
00000000
00000000
00000000
00000000
00000000
00000000
00000000
00000000
00000000
00000000
00000000
00000000
00000000
00000000
00000000
00000000
00000000
00000000
00000000
C10D6DEC
00000000
00000000
00000000
00000000
00000000
00000000
00000000
00000000
00000000
00000000
00000000
00000000
00000000
00000000
C0971C21
00000000
00000000
00000000
00000000
00000000
00000000
00000000
00000000
00000000
00000000
C05F03F6
00000000
00000000
00000000
BEBEE27C
00000000
00000000
00000000
00000000
00000000
00000000
00000000
00000000
40A05314
00000000
00000000
00000000
00000000
00000000
00000000
00000000
00000000
00000000
00000000
00000000
00000000
00000000
00000000
00000000
00000000
00000000
00000000
00000000
00000000
00000000
00000000
00000000
00000000
00000000
00000000
40612957
00000000
00000000
00000000
00000000
00000000
00000000
00000000
00000000
00000000
00000000
00000000
00000000
00000000
C0CA1F2F
00000000
00000000
C0B12366
00000000
00000000
00000000
00000000
00000000
00000000
00000000
00000000
00000000
00000000
00000000
409B9CC1
00000000
00000000
00000000
00000000
00000000
00000000
00000000
00000000
00000000
00000000
00000000
C0D7CF63
00000000
00000000
00000000
00000000
00000000
00000000
00000000
00000000
00000000
00000000
00000000
00000000
00000000
00000000
00000000
C04196F2
C0E2C980
00000000
00000000
00000000
00000000
C0DEC803
00000000
00000000
00000000
00000000
00000000
00000000
00000000
00000000
00000000
00000000
00000000
00000000
00000000
00000000
00000000
00000000
00000000
00000000
00000000
00000000
3FCCA19D
00000000
00000000
00000000
00000000
00000000
00000000
00000000
00000000
00000000
00000000
4066530F
00000000
C09F876B
00000000
00000000
00000000
00000000
00000000
00000000
00000000
00000000
00000000
00000000
00000000
00000000
00000000
4112E5F5
00000000
00000000
BF09317C
00000000
00000000
00000000
00000000
00000000
00000000
00000000
00000000
4088A5BD
00000000
40DDDDA8
00000000
00000000
00000000
00000000
00000000
00000000
00000000
00000000
00000000
00000000
00000000
00000000
00000000
00000000
410EE6FD
00000000
00000000
00000000
00000000
00000000
00000000
00000000
00000000
00000000
00000000
00000000
00000000
00000000
00000000
00000000
00000000
00000000
00000000
C095B0E9
C1026E74
00000000
00000000
00000000
00000000
00000000
00000000
00000000
00000000
00000000
00000000
00000000
00000000
00000000
00000000
00000000
00000000
00000000
00000000
00000000
00000000
00000000
00000000
00000000
00000000
00000000
C1155DF9
00000000
00000000
00000000
00000000
00000000
00000000
00000000
00000000
4090D8C6
00000000
00000000
00000000
4096923D
00000000
00000000
00000000
00000000
00000000
00000000
00000000
00000000
00000000
00000000
00000000
00000000
C0C02281
00000000
00000000
00000000
00000000
00000000
00000000
00000000
00000000
00000000
BF5C5A93
00000000
00000000
00000000
00000000
00000000
00000000
00000000
00000000
00000000
00000000
00000000
00000000
00000000
00000000
4085F5B7
C0CBF787
BF730EC0
00000000
00000000
00000000
00000000
00000000
00000000
00000000
00000000
00000000
00000000
00000000
00000000
00000000
00000000
00000000
00000000
00000000
00000000
00000000
00000000
00000000
00000000
00000000
00000000
00000000
00000000
00000000
00000000
00000000
00000000
00000000
00000000
4118FE7B
00000000
00000000
00000000
00000000
00000000
00000000
00000000
00000000
00000000
00000000
00000000
00000000
00000000
00000000
00000000
40F32F2C
00000000
00000000
00000000
BF080022
00000000
00000000
00000000
00000000
00000000
00000000
00000000
00000000
00000000
00000000
00000000
00000000
00000000
00000000
411706B4
00000000
00000000
00000000
00000000
00000000
00000000
40B2ADEF
00000000
00000000
00000000
00000000
00000000
00000000
C1135996
00000000
00000000
00000000
00000000
00000000
BF589881
00000000
00000000
00000000
00000000
00000000
40E074D0
00000000
00000000
00000000
00000000
00000000
00000000
00000000
00000000
00000000
00000000
00000000
00000000
00000000
4117C370
00000000
00000000
00000000
00000000
00000000
00000000
00000000
00000000
00000000
00000000
00000000
00000000
00000000
00000000
00000000
00000000
00000000
00000000
00000000
00000000
00000000
00000000
00000000
00000000
00000000
00000000
00000000
00000000
00000000
00000000
00000000
00000000
00000000
00000000
00000000
00000000
00000000
00000000
00000000
00000000
00000000
00000000
40E82CDA
00000000
00000000
00000000
00000000
40C52E05
00000000
00000000
00000000
00000000
00000000
00000000
00000000
00000000
00000000
40AA5FBD
C059430F
00000000
00000000
00000000
00000000
00000000
00000000
00000000
00000000
00000000
00000000
BFBDAD5E
00000000
00000000
00000000
00000000
00000000
00000000
BF8A68C6
00000000
00000000
00000000
00000000
00000000
00000000
00000000
00000000
00000000
00000000
00000000
00000000
C09C414D
00000000
00000000
00000000
00000000
00000000
00000000
4095897A
00000000
00000000
00000000
00000000
00000000
00000000
40C61084
00000000
00000000
00000000
00000000
00000000
00000000
00000000
00000000
00000000
00000000
00000000
00000000
00000000
00000000
00000000
00000000
00000000
00000000
40C69176
00000000
00000000
00000000
00000000
00000000
00000000
00000000
00000000
00000000
00000000
00000000
00000000
00000000
00000000
00000000
00000000
00000000
00000000
00000000
00000000
C0998B06
00000000
00000000
00000000
00000000
00000000
00000000
404B0AA7
00000000
00000000
00000000
00000000
00000000
00000000
00000000
00000000
00000000
00000000
00000000
00000000
00000000
00000000
00000000
4088B61A
4083DADD
00000000
C0C8F3A1
00000000
BF323ED7
00000000
00000000
00000000
00000000
00000000
00000000
C05B980C
3FD0F992
00000000
00000000
00000000
00000000
00000000
00000000
00000000
00000000
00000000
00000000
00000000
00000000
00000000
00000000
00000000
00000000
00000000
00000000
00000000
00000000
C0E80DC2
00000000
00000000
00000000
00000000
00000000
00000000
00000000
00000000
00000000
00000000
401A57BA
00000000
00000000
00000000
00000000
00000000
00000000
C0BEBA0E
40E57FA4
00000000
00000000
00000000
00000000
00000000
00000000
00000000
00000000
00000000
00000000
00000000
00000000
00000000
00000000
00000000
00000000
4088E75F
00000000
BF9BD68A
00000000
00000000
00000000
00000000
00000000
00000000
00000000
00000000
00000000
00000000
00000000
00000000
00000000
C0325183
00000000
00000000
00000000
00000000
C0F5A3C9
C097ABF7
00000000
40CB10B4
00000000
00000000
00000000
00000000
BF04BA44
3F823463
00000000
00000000
00000000
00000000
00000000
00000000
00000000
00000000
00000000
00000000
00000000
00000000
00000000
00000000
00000000
00000000
3FB234C6
C0AF5EAD
00000000
00000000
00000000
00000000
00000000
00000000
00000000
00000000
00000000
00000000
00000000
00000000
00000000
4118D68B
00000000
00000000
00000000
00000000
00000000
00000000
00000000
00000000
3EE18185
00000000
00000000
00000000
00000000
00000000
00000000
00000000
00000000
407F797B
00000000
00000000
00000000
BFE2F55A
00000000
00000000
00000000
00000000
00000000
C04E4FA5
00000000
00000000
00000000
C11CA034
00000000
00000000
00000000
00000000
00000000
00000000
00000000
00000000
40E0B4A0
00000000
00000000
00000000
00000000
00000000
00000000
00000000
00000000
00000000
C0874DA4
00000000
00000000
00000000
00000000
00000000
00000000
00000000
00000000
00000000
00000000
00000000
00000000
00000000
00000000
00000000
00000000
00000000
BF991287
00000000
00000000
00000000
00000000
00000000
00000000
00000000
00000000
00000000
BF41449C
00000000
00000000
00000000
00000000
00000000
00000000
00000000
00000000
00000000
00000000
00000000
00000000
00000000
00000000
00000000
00000000
3FF50E07
00000000
00000000
00000000
00000000
00000000
00000000
00000000
00000000
40BE05EE
C07860D1
00000000
00000000
00000000
BAB978A6
00000000
00000000
00000000
C05790E2
00000000
00000000
C0D7D025
00000000
00000000
00000000
00000000
00000000
00000000
00000000
00000000
00000000
00000000
00000000
00000000
00000000
00000000
00000000
00000000
408E81C0
00000000
00000000
41100DFB
00000000
00000000
00000000
00000000
00000000
00000000
00000000
00000000
00000000
00000000
00000000
00000000
00000000
00000000
00000000
00000000
00000000
00000000
00000000
4038524F
C025A9A3
00000000
00000000
00000000
00000000
00000000
00000000
00000000
00000000
00000000
00000000
00000000
00000000
00000000
00000000
00000000
00000000
00000000
00000000
41171649
00000000
00000000
00000000
00000000
00000000
00000000
00000000
00000000
00000000
00000000
00000000
00000000
40A5D7A5
00000000
00000000
00000000
409018C2
00000000
00000000
C0FE94DA
00000000
00000000
BFF47F58
00000000
3F2C8624
00000000
00000000
C0E53A2D
00000000
C0DD5401
00000000
00000000
00000000
00000000
00000000
00000000
00000000
00000000
00000000
00000000
00000000
00000000
00000000
40518C86
00000000
00000000
00000000
00000000
00000000
00000000
00000000
00000000
00000000
00000000
00000000
00000000
00000000
00000000
00000000
00000000
40932637
00000000
00000000
00000000
00000000
00000000
C0F0F931
BFB51690
00000000
00000000
00000000
00000000
00000000
00000000
00000000
00000000
00000000
00000000
00000000
00000000
40FCE845
00000000
00000000
00000000
00000000
00000000
00000000
00000000
00000000
00000000
40A88ECE
00000000
00000000
00000000
00000000
00000000
00000000
00000000
00000000
00000000
00000000
00000000
00000000
411F1553
40992FFF
C0E6D617
40A30A9C
00000000
00000000
00000000
00000000
00000000
00000000
00000000
00000000
00000000
00000000
00000000
00000000
00000000
00000000
00000000
00000000
00000000
00000000
00000000
00000000
00000000
00000000
00000000
00000000
00000000
00000000
00000000
00000000
00000000
40E202F5
00000000
3FF86696
00000000
00000000
00000000
00000000
00000000
00000000
00000000
00000000
00000000
00000000
00000000
C1199767
C0E5C540
00000000
00000000
00000000
00000000
00000000
00000000
00000000
00000000
00000000
00000000
00000000
00000000
00000000
00000000
00000000
00000000
00000000
00000000
00000000
BE962B6A
00000000
00000000
00000000
00000000
00000000
00000000
00000000
00000000
00000000
00000000
00000000
BE8DB14D
00000000
00000000
00000000
00000000
00000000
00000000
00000000
00000000
00000000
40E04F14
00000000
00000000
00000000
00000000
00000000
00000000
00000000
00000000
00000000
00000000
00000000
00000000
00000000
00000000
00000000
00000000
00000000
00000000
40E21512
00000000
00000000
00000000
00000000
00000000
409704E3
00000000
00000000
00000000
00000000
C1031CE1
00000000
00000000
00000000
00000000
00000000
00000000
00000000
00000000
00000000
00000000
00000000
00000000
00000000
00000000
00000000
00000000
00000000
00000000
00000000
00000000
00000000
00000000
00000000
00000000
00000000
00000000
C117FB88
00000000
00000000
C077B510
00000000
00000000
00000000
00000000
00000000
00000000
00000000
00000000
00000000
00000000
00000000
00000000
00000000
00000000
00000000
00000000
00000000
00000000
00000000
00000000
00000000
00000000
00000000
00000000
00000000
00000000
00000000
00000000
00000000
00000000
40CF493B
00000000
00000000
00000000
00000000
00000000
00000000
00000000
00000000
00000000
C0AADB9D
00000000
3D97FC5B
00000000
00000000
00000000
00000000
00000000
00000000
00000000
408E7B58
00000000
00000000
00000000
00000000
00000000
00000000
00000000
00000000
00000000
C10615BE
00000000
00000000
00000000
00000000
C100FA20
00000000
00000000
00000000
00000000
00000000
00000000
00000000
00000000
00000000
00000000
00000000
40C27000
00000000
00000000
00000000
00000000
40E01119
C09C3230
00000000
3FF16D94
00000000
00000000
409D3429
00000000
00000000
00000000
C08744D4
00000000
00000000
00000000
00000000
00000000
BEFC9ECA
00000000
00000000
C00D60A4
00000000
00000000
00000000
C0E56682
00000000
00000000
00000000
00000000
00000000
40F8460A
00000000
00000000
00000000
00000000
00000000
00000000
00000000
00000000
00000000
C0F7653D
00000000
00000000
00000000
00000000
00000000
00000000
00000000
00000000
00000000
00000000
00000000
00000000
00000000
00000000
00000000
00000000
00000000
00000000
00000000
BDC6E6FD
40C3D97C
00000000
00000000
00000000
00000000
00000000
00000000
00000000
405E858F
00000000
00000000
00000000
00000000
00000000
00000000
00000000
00000000
00000000
00000000
00000000
00000000
00000000
00000000
00000000
00000000
00000000
00000000
00000000
00000000
00000000
00000000
00000000
00000000
00000000
00000000
00000000
406A0585
00000000
00000000
00000000
00000000
00000000
00000000
00000000
00000000
00000000
00000000
00000000
00000000
00000000
00000000
00000000
3FCAB132
00000000
00000000
00000000
00000000
00000000
00000000
00000000
00000000
00000000
00000000
BFD002F4
00000000
00000000
00000000
00000000
00000000
00000000
00000000
00000000
00000000
00000000
00000000
00000000
00000000
00000000
00000000
00000000
00000000
00000000
00000000
00000000
410FB053
00000000
00000000
00000000
00000000
00000000
00000000
00000000
00000000
00000000
00000000
00000000
00000000
4018BEF9
409B3EFD
00000000
00000000
00000000
00000000
00000000
00000000
00000000
00000000
00000000
00000000
00000000
00000000
00000000
00000000
00000000
00000000
00000000
00000000
00000000
00000000
00000000
00000000
40B9C628
00000000
C048A128
00000000
41134612
00000000
00000000
00000000
00000000
00000000
00000000
00000000
00000000
00000000
00000000
00000000
00000000
00000000
00000000
00000000
00000000
00000000
00000000
00000000
00000000
00000000
00000000
00000000
00000000
00000000
00000000
00000000
00000000
00000000
00000000
4119C2E1
00000000
C10BCD77
00000000
00000000
C11FF8DB
00000000
00000000
00000000
00000000
00000000
00000000
00000000
00000000
00000000
00000000
00000000
00000000
00000000
00000000
00000000
00000000
00000000
00000000
00000000
00000000
00000000
00000000
00000000
00000000
00000000
00000000
00000000
00000000
00000000
00000000
00000000
00000000
00000000
00000000
00000000
00000000
00000000
00000000
00000000
00000000
00000000
00000000
00000000
00000000
00000000
00000000
00000000
00000000
411C247C
00000000
00000000
C1166A0F
00000000
00000000
00000000
00000000
00000000
00000000
00000000
00000000
00000000
00000000
00000000
00000000
00000000
00000000
00000000
00000000
00000000
00000000
00000000
C0FC819E
00000000
00000000
C06375E1
00000000
00000000
00000000
00000000
00000000
00000000
00000000
00000000
00000000
00000000
00000000
00000000
00000000
00000000
3FA9BA81
00000000
00000000
00000000
C01D57DC
00000000
00000000
00000000
00000000
00000000
00000000
00000000
00000000
00000000
00000000
00000000
00000000
00000000
00000000
00000000
00000000
00000000
00000000
00000000
00000000
00000000
00000000
00000000
00000000
00000000
00000000
00000000
C115F1F6
00000000
00000000
00000000
00000000
00000000
00000000
00000000
00000000
00000000
00000000
00000000
00000000
00000000
00000000
00000000
00000000
00000000
400D7451
00000000
00000000
00000000
BF1723AD
00000000
00000000
00000000
00000000
00000000
00000000
00000000
C0FAEDB9
00000000
00000000
00000000
00000000
00000000
00000000
00000000
00000000
00000000
40E3A8D7
00000000
00000000
00000000
00000000
00000000
00000000
00000000
00000000
00000000
00000000
4058E5AA
00000000
00000000
00000000
00000000
00000000
00000000
00000000
00000000
00000000
00000000
00000000
00000000
00000000
00000000
00000000
00000000
00000000
00000000
00000000
00000000
00000000
00000000
00000000
00000000
00000000
00000000
00000000
00000000
BF03ED4C
00000000
00000000
00000000
00000000
00000000
00000000
00000000
00000000
00000000
00000000
00000000
00000000
00000000
00000000
00000000
00000000
C09F2845
00000000
00000000
00000000
00000000
00000000
4085299F
00000000
00000000
00000000
00000000
00000000
00000000
00000000
00000000
00000000
00000000
00000000
00000000
00000000
00000000
00000000
00000000
00000000
00000000
00000000
00000000
00000000
00000000
00000000
00000000
C0422408
00000000
00000000
00000000
00000000
00000000
00000000
00000000
00000000
00000000
00000000
00000000
00000000
00000000
00000000
00000000
00000000
00000000
00000000
00000000
40B224B6
00000000
00000000
00000000
00000000
00000000
00000000
00000000
00000000
00000000
00000000
00000000
00000000
00000000
00000000
00000000
00000000
C02601BD
00000000
00000000
00000000
00000000
00000000
C0A4DD37
00000000
00000000
00000000
00000000
00000000
00000000
00000000
00000000
00000000
00000000
00000000
00000000
00000000
C049F54F
C03116FB
00000000
00000000
00000000
00000000
00000000
00000000
C09602A2
00000000
00000000
00000000
C11D2985
00000000
00000000
00000000
BF56A7EE
BEAE07D2
00000000
00000000
00000000
00000000
00000000
00000000
00000000
00000000
00000000
00000000
00000000
00000000
00000000
00000000
00000000
00000000
00000000
00000000
00000000
00000000
00000000
00000000
00000000
00000000
00000000
00000000
00000000
00000000
00000000
407B72F1
00000000
00000000
00000000
00000000
00000000
402B0968
00000000
00000000
00000000
4004266C
00000000
00000000
00000000
00000000
00000000
00000000
00000000
4010EE29
00000000
BED381E5
00000000
00000000
00000000
00000000
00000000
00000000
00000000
00000000
00000000
00000000
00000000
00000000
00000000
00000000
00000000
3F12BFDE
00000000
BF92A5C1
00000000
00000000
00000000
00000000
00000000
00000000
00000000
00000000
00000000
00000000
00000000
00000000
00000000
00000000
41064272
00000000
00000000
00000000
00000000
00000000
00000000
00000000
4062320C
00000000
00000000
C0861A1A
00000000
00000000
00000000
00000000
00000000
00000000
00000000
00000000
00000000
00000000
00000000
00000000
00000000
00000000
00000000
00000000
00000000
00000000
00000000
00000000
00000000
00000000
00000000
00000000
00000000
00000000
00000000
00000000
00000000
00000000
00000000
00000000
00000000
00000000
00000000
00000000
00000000
00000000
00000000
00000000
00000000
00000000
00000000
00000000
00000000
00000000
00000000
00000000
00000000
00000000
00000000
00000000
C0FC6D33
40897738
C0CA1B41
00000000
00000000
00000000
00000000
00000000
00000000
00000000
00000000
00000000
00000000
408EAC3E
00000000
00000000
00000000
00000000
00000000
00000000
00000000
00000000
00000000
00000000
C01EC4AD
00000000
00000000
00000000
00000000
40340F98
00000000
00000000
00000000
00000000
00000000
00000000
00000000
00000000
00000000
00000000
00000000
00000000
00000000
00000000
00000000
00000000
00000000
00000000
00000000
00000000
00000000
00000000
00000000
00000000
00000000
00000000
00000000
00000000
00000000
00000000
00000000
40079F25
00000000
00000000
00000000
00000000
00000000
00000000
00000000
00000000
00000000
409B2AC2
00000000
00000000
00000000
00000000
00000000
00000000
00000000
00000000
00000000
00000000
00000000
00000000
00000000
00000000
BEDD3BC8
00000000
00000000
00000000
00000000
00000000
00000000
00000000
00000000
C00B1C81
00000000
00000000
00000000
00000000
00000000
C10CE576
00000000
00000000
00000000
00000000
00000000
00000000
00000000
00000000
00000000
00000000
00000000
00000000
00000000
00000000
00000000
00000000
00000000
410954B4
00000000
00000000
00000000
00000000
3FD47644
00000000
00000000
00000000
00000000
00000000
00000000
00000000
00000000
00000000
00000000
C1124683
00000000
00000000
00000000
00000000
00000000
00000000
00000000
40A04EF9
00000000
00000000
00000000
00000000
00000000
00000000
00000000
00000000
00000000
00000000
00000000
00000000
00000000
00000000
00000000
00000000
00000000
00000000
00000000
4039EA48
00000000
00000000
00000000
00000000
00000000
00000000
00000000
C0038554
00000000
00000000
00000000
00000000
BFDCD3F5
00000000
00000000
00000000
00000000
00000000
00000000
00000000
00000000
00000000
00000000
00000000
00000000
00000000
00000000
00000000
00000000
00000000
00000000
00000000
00000000
00000000
00000000
3FC13AD1
00000000
00000000
00000000
00000000
00000000
00000000
40765B7D
00000000
408A1DA1
00000000
00000000
00000000
00000000
00000000
00000000
00000000
00000000
00000000
00000000
00000000
00000000
00000000
00000000
00000000
00000000
00000000
00000000
00000000
00000000
00000000
00000000
00000000
00000000
00000000
00000000
00000000
00000000
00000000
00000000
00000000
00000000
00000000
00000000
00000000
00000000
00000000
40E6351B
00000000
00000000
00000000
00000000
00000000
00000000
410D1C63
00000000
00000000
00000000
4014D22A
00000000
C0ED8149
00000000
00000000
00000000
00000000
00000000
00000000
00000000
00000000
00000000
00000000
00000000
00000000
00000000
00000000
00000000
409102FC
00000000
40E23398
00000000
00000000
00000000
00000000
00000000
00000000
C10A8EDC
00000000
00000000
00000000
00000000
00000000
00000000
00000000
00000000
00000000
00000000
00000000
3EA6E2E2
40C24543
00000000
00000000
00000000
00000000
00000000
00000000
00000000
00000000
00000000
00000000
00000000
00000000
3FFBA455
3FBC6D2D
00000000
00000000
00000000
00000000
00000000
C0281722
00000000
00000000
00000000
00000000
00000000
00000000
00000000
00000000
00000000
00000000
C11BC553
00000000
00000000
00000000
00000000
00000000
00000000
00000000
C1036563
00000000
00000000
00000000
00000000
00000000
00000000
40DD91AC
00000000
C119A550
00000000
00000000
00000000
00000000
00000000
00000000
00000000
00000000
00000000
00000000
00000000
00000000
BDAE42EA
00000000
00000000
C0C83023
00000000
00000000
00000000
00000000
00000000
00000000
410C5E89
00000000
40329DAC
00000000
00000000
00000000
00000000
00000000
00000000
00000000
00000000
00000000
00000000
00000000
00000000
00000000
00000000
00000000
00000000
00000000
00000000
00000000
00000000
00000000
00000000
00000000
40B89EEC
00000000
00000000
00000000
00000000
00000000
00000000
00000000
00000000
00000000
00000000
40E51086
00000000
00000000
00000000
00000000
00000000
3F4676F7
00000000
00000000
00000000
00000000
00000000
00000000
00000000
00000000
C0ABF0FE
00000000
00000000
00000000
00000000
BF2795D1
00000000
C11D343E
00000000
40787B42
00000000
00000000
00000000
00000000
00000000
00000000
00000000
00000000
00000000
00000000
00000000
00000000
00000000
00000000
00000000
00000000
00000000
00000000
00000000
BF79FC63
00000000
00000000
00000000
00000000
00000000
00000000
00000000
00000000
00000000
00000000
00000000
00000000
00000000
00000000
00000000
4009D1DA
00000000
00000000
00000000
00000000
41098B2B
00000000
00000000
00000000
00000000
00000000
C0A81304
00000000
00000000
4006F6E3
40EA5B41
00000000
00000000
00000000
00000000
C01A95DE
00000000
00000000
00000000
00000000
00000000
00000000
00000000
00000000
00000000
00000000
00000000
00000000
00000000
00000000
40D9A415
00000000
00000000
00000000
00000000
00000000
C0D0E17C
00000000
00000000
00000000
00000000
00000000
00000000
00000000
00000000
00000000
00000000
00000000
00000000
00000000
00000000
00000000
41100864
00000000
00000000
00000000
00000000
BE00092A
00000000
00000000
40E8DC0C
00000000
00000000
00000000
00000000
00000000
00000000
00000000
00000000
00000000
00000000
00000000
00000000
400AEFDE
00000000
C0079B2C
00000000
00000000
00000000
00000000
00000000
00000000
00000000
00000000
00000000
00000000
00000000
00000000
00000000
4108DE67
00000000
00000000
C09F5243
00000000
00000000
00000000
00000000
00000000
00000000
00000000
00000000
00000000
C0B5E6B3
00000000
00000000
00000000
00000000
00000000
C019FE5F
00000000
40E96140
00000000
00000000
00000000
00000000
00000000
00000000
4118CE2C
00000000
00000000
00000000
00000000
00000000
00000000
00000000
00000000
00000000
00000000
00000000
C0EDDED9
00000000
00000000
00000000
00000000
00000000
00000000
4087AFE8
00000000
00000000
00000000
00000000
00000000
00000000
00000000
00000000
00000000
00000000
00000000
00000000
40693738
00000000
C0CF229A
00000000
40E5E8BF
C000BC94
00000000
00000000
00000000
00000000
00000000
00000000
00000000
00000000
00000000
00000000
00000000
00000000
00000000
00000000
00000000
00000000
00000000
00000000
00000000
C04FE527
00000000
00000000
00000000
00000000
00000000
00000000
C10AFA2A
00000000
00000000
00000000
00000000
00000000
00000000
00000000
C0FC2AE9
C0E0B0BD
00000000
00000000
00000000
00000000
00000000
00000000
00000000
00000000
00000000
40A8CB21
00000000
00000000
00000000
00000000
00000000
C0DFFF6C
C0D658A6
00000000
00000000
C0DAC88F
00000000
00000000
00000000
00000000
00000000
00000000
00000000
00000000
00000000
00000000
00000000
00000000
00000000
00000000
C0F75337
00000000
00000000
00000000
00000000
00000000
00000000
00000000
00000000
00000000
00000000
00000000
00000000
00000000
00000000
00000000
00000000
00000000
00000000
00000000
00000000
00000000
00000000
00000000
00000000
C107CEE9
00000000
00000000
00000000
00000000
00000000
00000000
00000000
C05EDC68
00000000
BFB297FB
00000000
00000000
00000000
00000000
00000000
00000000
00000000
00000000
00000000
00000000
00000000
00000000
00000000
00000000
00000000
00000000
00000000
00000000
40248A23
00000000
00000000
00000000
00000000
00000000
00000000
00000000
40677AF0
00000000
00000000
00000000
00000000
00000000
00000000
00000000
C05CDC79
00000000
00000000
00000000
00000000
00000000
00000000
00000000
00000000
00000000
00000000
00000000
00000000
00000000
00000000
00000000
00000000
00000000
00000000
00000000
00000000
00000000
00000000
00000000
00000000
00000000
BCF4D775
00000000
00000000
00000000
00000000
00000000
00000000
00000000
00000000
00000000
00000000
00000000
00000000
00000000
C109D479
00000000
00000000
00000000
00000000
00000000
00000000
00000000
00000000
00000000
00000000
00000000
00000000
00000000
00000000
00000000
00000000
00000000
00000000
00000000
00000000
00000000
00000000
00000000
00000000
00000000
00000000
00000000
00000000
00000000
00000000
00000000
00000000
00000000
00000000
00000000
00000000
00000000
00000000
00000000
00000000
00000000
00000000
4036B13C
00000000
3ED520B6
00000000
00000000
00000000
00000000
00000000
00000000
00000000
00000000
00000000
00000000
00000000
00000000
4111F6A0
00000000
00000000
40FBAD87
00000000
00000000
00000000
00000000
00000000
C1102EF6
00000000
00000000
00000000
00000000
00000000
BC552905
00000000
00000000
40D06D74
00000000
C1072C52
00000000
00000000
00000000
00000000
00000000
00000000
00000000
00000000
00000000
00000000
00000000
00000000
00000000
00000000
BFA8F102
00000000
00000000
00000000
00000000
00000000
00000000
00000000
00000000
00000000
C10212A8
00000000
00000000
00000000
00000000
00000000
00000000
00000000
00000000
00000000
00000000
00000000
00000000
00000000
00000000
00000000
00000000
00000000
00000000
00000000
00000000
00000000
00000000
00000000
00000000
00000000
00000000
411F303A
00000000
00000000
BE2858AE
00000000
00000000
00000000
00000000
406A1FCF
00000000
00000000
00000000
00000000
00000000
00000000
00000000
00000000
00000000
00000000
00000000
00000000
C0E3FC82
00000000
00000000
00000000
00000000
00000000
00000000
00000000
00000000
00000000
00000000
00000000
00000000
00000000
00000000
00000000
00000000
00000000
00000000
00000000
00000000
00000000
00000000
00000000
00000000
C08EF740
00000000
00000000
C08F6457
00000000
00000000
00000000
00000000
00000000
41063025
00000000
00000000
40CABAAD
00000000
00000000
00000000
00000000
00000000
00000000
00000000
00000000
00000000
00000000
00000000
C11CDBA4
00000000
00000000
00000000
00000000
C11A3C61
00000000
00000000
00000000
00000000
00000000
00000000
00000000
00000000
00000000
00000000
00000000
00000000
00000000
00000000
00000000
00000000
00000000
C0724A0E
00000000
00000000
00000000
00000000
00000000
00000000
3FF84733
00000000
00000000
00000000
C0DFF403
00000000
00000000
C10BB5F4
00000000
00000000
00000000
00000000
00000000
00000000
00000000
00000000
00000000
00000000
00000000
00000000
00000000
00000000
00000000
00000000
00000000
00000000
00000000
00000000
00000000
00000000
00000000
00000000
00000000
C0BE0B9A
00000000
00000000
409F2627
00000000
00000000
00000000
00000000
00000000
00000000
00000000
00000000
00000000
00000000
00000000
00000000
00000000
00000000
00000000
00000000
00000000
00000000
00000000
00000000
00000000
00000000
00000000
00000000
C10D401A
00000000
C03F52BC
00000000
00000000
00000000
00000000
00000000
00000000
00000000
00000000
00000000
BF8C9860
00000000
00000000
4025E9BA
00000000
00000000
00000000
00000000
00000000
00000000
00000000
BEBBBEAD
00000000
00000000
00000000
00000000
00000000
00000000
00000000
C10E8C6B
00000000
00000000
00000000
00000000
00000000
00000000
00000000
00000000
00000000
00000000
00000000
00000000
00000000
00000000
00000000
C0405F7F
00000000
00000000
00000000
00000000
00000000
00000000
00000000
00000000
00000000
00000000
00000000
00000000
00000000
00000000
00000000
00000000
00000000
00000000
00000000
00000000
00000000
C0A56E00
00000000
40FF5B4E
00000000
00000000
00000000
00000000
00000000
00000000
00000000
00000000
00000000
00000000
00000000
00000000
00000000
00000000
00000000
00000000
00000000
00000000
00000000
00000000
00000000
C0DBC5E6
00000000
00000000
C0A14EF0
00000000
00000000
00000000
00000000
00000000
00000000
40041A43
00000000
00000000
00000000
00000000
00000000
00000000
00000000
00000000
00000000
00000000
00000000
00000000
00000000
00000000
00000000
00000000
00000000
00000000
00000000
00000000
00000000
00000000
00000000
00000000
00000000
41103477
00000000
00000000
00000000
00000000
00000000
00000000
C11865A8
00000000
00000000
00000000
00000000
00000000
00000000
00000000
00000000
00000000
00000000
BF37CDC2
00000000
00000000
00000000
00000000
00000000
00000000
00000000
00000000
00000000
00000000
00000000
00000000
00000000
3F5A4510
00000000
00000000
00000000
00000000
00000000
00000000
00000000
00000000
00000000
00000000
00000000
00000000
00000000
C0F52F7E
00000000
00000000
00000000
00000000
BF930280
00000000
00000000
00000000
00000000
00000000
00000000
00000000
00000000
00000000
00000000
C110315D
00000000
00000000
00000000
00000000
00000000
00000000
00000000
C0B2AEC4
BFB1A7AC
00000000
00000000
00000000
00000000
00000000
00000000
00000000
00000000
00000000
00000000
00000000
00000000
00000000
00000000
00000000
00000000
00000000
00000000
00000000
40C12831
C05212F7
00000000
00000000
3CB7C569
00000000
00000000
00000000
00000000
00000000
00000000
00000000
C0EDFC26
3E7124D5
00000000
00000000
00000000
00000000
00000000
BE05538A
00000000
00000000
00000000
00000000
00000000
00000000
00000000
00000000
C0FBB102
00000000
00000000
00000000
00000000
00000000
00000000
C0C7446E
00000000
4109DDD8
00000000
00000000
00000000
00000000
00000000
00000000
00000000
00000000
00000000
00000000
00000000
00000000
00000000
00000000
00000000
00000000
00000000
00000000
C0FB93DB
00000000
00000000
00000000
40F424CC
00000000
410DCB3D
00000000
00000000
00000000
00000000
00000000
00000000
00000000
00000000
00000000
00000000
00000000
00000000
00000000
00000000
00000000
00000000
00000000
00000000
403B69D6
00000000
00000000
00000000
00000000
00000000
00000000
00000000
00000000
00000000
00000000
3E3825DA
00000000
BF74EE15
00000000
00000000
00000000
00000000
00000000
00000000
00000000
00000000
00000000
BFCE9FE5
00000000
00000000
00000000
00000000
00000000
00000000
00000000
00000000
00000000
00000000
00000000
00000000
00000000
00000000
00000000
00000000
3FA5CAED
00000000
00000000
00000000
00000000
00000000
00000000
00000000
C09FEA2F
00000000
00000000
00000000
00000000
00000000
00000000
00000000
00000000
00000000
00000000
00000000
00000000
00000000
00000000
00000000
C032A916
00000000
00000000
00000000
00000000
00000000
00000000
00000000
00000000
00000000
00000000
00000000
00000000
00000000
00000000
00000000
00000000
BF991D7F
00000000
00000000
00000000
00000000
00000000
00000000
00000000
00000000
C009E653
00000000
00000000
00000000
00000000
40A44C00
00000000
00000000
00000000
00000000
00000000
00000000
00000000
00000000
00000000
00000000
00000000
00000000
00000000
00000000
3FD0D14C
00000000
00000000
00000000
00000000
00000000
4024B5B8
00000000
00000000
00000000
00000000
C108D9C3
00000000
00000000
40DEC440
00000000
00000000
00000000
00000000
00000000
00000000
00000000
00000000
00000000
00000000
00000000
BFE04169
00000000
00000000
00000000
00000000
00000000
00000000
00000000
00000000
00000000
00000000
4089A938
00000000
00000000
00000000
00000000
00000000
4051892E
00000000
00000000
00000000
00000000
00000000
410271B6
00000000
C080B955
40DC5E21
00000000
00000000
00000000
00000000
00000000
409B5ABB
408792A9
00000000
3FBF218E
00000000
00000000
00000000
00000000
00000000
00000000
00000000
00000000
00000000
00000000
00000000
00000000
00000000
00000000
00000000
00000000
00000000
00000000
00000000
00000000
00000000
00000000
00000000
00000000
00000000
00000000
00000000
00000000
00000000
00000000
00000000
C0F54719
00000000
00000000
00000000
00000000
00000000
00000000
00000000
00000000
00000000
00000000
00000000
00000000
00000000
00000000
00000000
00000000
00000000
00000000
00000000
00000000
00000000
00000000
00000000
00000000
00000000
00000000
40061D67
00000000
00000000
00000000
00000000
00000000
00000000
00000000
00000000
00000000
00000000
00000000
00000000
00000000
00000000
00000000
00000000
00000000
00000000
00000000
C11F17F2
00000000
00000000
00000000
00000000
3CD9ED9D
00000000
00000000
00000000
00000000
00000000
00000000
00000000
00000000
00000000
40949C9F
00000000
00000000
00000000
00000000
00000000
00000000
00000000
00000000
40FB3C2D
00000000
00000000
40462EA1
00000000
00000000
00000000
00000000
00000000
00000000
00000000
00000000
00000000
00000000
00000000
00000000
00000000
00000000
00000000
00000000
00000000
00000000
00000000
00000000
00000000
00000000
00000000
00000000
00000000
00000000
00000000
00000000
00000000
00000000
00000000
00000000
C1067770
00000000
00000000
00000000
00000000
00000000
00000000
00000000
00000000
00000000
411CF256
00000000
00000000
00000000
00000000
00000000
41169B6F
00000000
00000000
00000000
00000000
40A87083
00000000
00000000
C0734ED8
00000000
00000000
00000000
00000000
00000000
00000000
00000000
00000000
00000000
00000000
00000000
00000000
00000000
00000000
40F52FF9
00000000
00000000
00000000
400E27D9
00000000
00000000
00000000
00000000
00000000
00000000
00000000
00000000
00000000
C0BFE0C6
00000000
00000000
00000000
00000000
00000000
00000000
00000000
00000000
00000000
00000000
00000000
00000000
00000000
00000000
00000000
00000000
00000000
00000000
00000000
00000000
4069DDE4
00000000
00000000
00000000
00000000
C093069E
00000000
00000000
00000000
00000000
00000000
00000000
00000000
00000000
00000000
C02A94E0
00000000
C051B8B9
C0765E4F
00000000
00000000
00000000
00000000
00000000
00000000
00000000
00000000
C0C7BB2B
00000000
407F06BC
00000000
00000000
00000000
41190210
00000000
00000000
C0B6110B
00000000
00000000
00000000
00000000
00000000
00000000
3F604474
00000000
00000000
00000000
00000000
00000000
00000000
00000000
00000000
00000000
00000000
00000000
00000000
C01BF00F
00000000
00000000
00000000
00000000
3EFAC39D
00000000
00000000
00000000
00000000
00000000
00000000
00000000
00000000
C02E127A
00000000
00000000
C0DCF811
00000000
00000000
3EAB57DD
00000000
00000000
00000000
00000000
00000000
00000000
00000000
00000000
C0E14297
00000000
00000000
00000000
00000000
00000000
00000000
00000000
00000000
00000000
00000000
00000000
00000000
00000000
00000000
00000000
BF17CB14
00000000
410DE7CD
00000000
00000000
00000000
00000000
00000000
00000000
00000000
00000000
00000000
00000000
00000000
00000000
00000000
C0E38C21
00000000
00000000
00000000
00000000
00000000
00000000
00000000
00000000
00000000
00000000
00000000
00000000
00000000
C1021409
00000000
00000000
00000000
00000000
00000000
00000000
00000000
00000000
00000000
00000000
00000000
00000000
00000000
00000000
00000000
00000000
00000000
00000000
00000000
00000000
00000000
00000000
00000000
C10D8F49
00000000
00000000
00000000
C11C3F91
00000000
C0C5B43B
C11A0A70
00000000
00000000
00000000
00000000
00000000
00000000
C0461242
00000000
00000000
00000000
00000000
BDC19E3C
00000000
00000000
00000000
C0A0BD13
00000000
00000000
00000000
403AF106
C06593CD
00000000
00000000
00000000
C018FDD9
00000000
00000000
00000000
00000000
00000000
00000000
00000000
00000000
00000000
00000000
00000000
00000000
00000000
00000000
00000000
00000000
00000000
00000000
00000000
00000000
00000000
00000000
00000000
00000000
40B36CF7
C083CBFD
00000000
00000000
00000000
00000000
00000000
00000000
00000000
00000000
00000000
C1031ADC
00000000
00000000
00000000
40F5DD9A
00000000
00000000
00000000
40AE1587
00000000
00000000
C0D5A8FD
00000000
00000000
00000000
00000000
00000000
00000000
C0E89FF8
00000000
00000000
00000000
00000000
00000000
00000000
00000000
00000000
00000000
00000000
00000000
00000000
00000000
400CF41C
00000000
00000000
410EC034
00000000
00000000
00000000
00000000
00000000
00000000
4069FCBA
00000000
00000000
00000000
00000000
00000000
00000000
00000000
00000000
00000000
00000000
00000000
40EDC157
00000000
40A72C19
00000000
00000000
00000000
C0E6BD51
00000000
00000000
00000000
00000000
00000000
00000000
00000000
00000000
00000000
00000000
00000000
00000000
00000000
BE6740C6
00000000
00000000
4093960B
BF833487
00000000
00000000
00000000
00000000
C0AF00B3
00000000
00000000
00000000
00000000
00000000
00000000
00000000
00000000
00000000
00000000
00000000
00000000
00000000
00000000
3FF558A1
00000000
C060CD46
C0BD92B6
00000000
00000000
00000000
00000000
00000000
00000000
00000000
00000000
00000000
00000000
C108CD7E
00000000
00000000
00000000
00000000
00000000
00000000
3F537B79
C093CDE4
00000000
C08F706A
00000000
00000000
00000000
40FF3214
00000000
40F70E1D
00000000
00000000
00000000
00000000
C0D2AA94
00000000
00000000
3FA82B2E
00000000
00000000
00000000
00000000
00000000
00000000
00000000
00000000
00000000
00000000
00000000
00000000
00000000
00000000
00000000
00000000
00000000
00000000
00000000
00000000
4111C4AA
00000000
00000000
3EE0A205
00000000
00000000
00000000
00000000
405706C9
00000000
00000000
00000000
00000000
00000000
00000000
00000000
00000000
00000000
00000000
00000000
00000000
00000000
00000000
00000000
00000000
00000000
00000000
00000000
00000000
409C2FA2
40752932
C0F090E4
00000000
40735129
40CB41C7
00000000
00000000
00000000
00000000
00000000
00000000
00000000
00000000
00000000
00000000
00000000
00000000
00000000
00000000
00000000
00000000
00000000
BFA62BDC
00000000
00000000
C0A58EE0
00000000
00000000
00000000
00000000
00000000
00000000
00000000
00000000
00000000
00000000
00000000
00000000
00000000
00000000
00000000
00000000
00000000
00000000
00000000
00000000
00000000
00000000
00000000
00000000
00000000
00000000
00000000
00000000
00000000
00000000
00000000
C07F3176
C0CA23B8
00000000
00000000
00000000
00000000
00000000
00000000
00000000
00000000
00000000
00000000
00000000
00000000
00000000
00000000
00000000
00000000
00000000
00000000
00000000
00000000
00000000
00000000
00000000
00000000
00000000
00000000
00000000
00000000
00000000
00000000
401B1940
00000000
00000000
00000000
BEBADC65
00000000
00000000
00000000
00000000
00000000
00000000
00000000
00000000
00000000
00000000
00000000
00000000
00000000
00000000
00000000
00000000
00000000
00000000
00000000
00000000
00000000
00000000
00000000
00000000
00000000
00000000
00000000
00000000
00000000
00000000
00000000
00000000
00000000
00000000
00000000
41156AD9
00000000
00000000
00000000
00000000
00000000
41092541
C0F710F9
00000000
41083098
00000000
00000000
00000000
00000000
00000000
00000000
00000000
00000000
00000000
00000000
00000000
00000000
00000000
00000000
00000000
00000000
00000000
00000000
00000000
00000000
00000000
00000000
00000000
00000000
00000000
406D8B50
00000000
00000000
00000000
00000000
00000000
00000000
C0A38EDA
00000000
40AC8DAF
00000000
00000000
00000000
00000000
00000000
00000000
00000000
00000000
00000000
00000000
00000000
00000000
00000000
C012020A
00000000
00000000
00000000
00000000
00000000
00000000
00000000
00000000
00000000
00000000
00000000
00000000
00000000
4071B4A9
00000000
C0C12CB9
00000000
C07A4C54
00000000
00000000
00000000
00000000
00000000
00000000
00000000
00000000
00000000
00000000
00000000
00000000
00000000
00000000
00000000
00000000
00000000
00000000
00000000
00000000
00000000
00000000
00000000
00000000
00000000
C082DA2F

